{
  "version": "1.0",
  "truncation": null,
  "padding": null,
  "added_tokens": [
    {
      "id": 0,
      "content": "[PAD]",
      "single_word": false,
      "lstrip": false,
      "rstrip": false,
      "normalized": false,
      "special": true
    },
    {
      "id": 1,
      "content": "[DELIM]",
      "single_word": false,
      "lstrip": false,
      "rstrip": false,
      "normalized": false,
      "special": true
    },
    {
      "id": 2,
      "content": "[END]",
      "single_word": false,
      "lstrip": false,
      "rstrip": false,
      "normalized": false,
      "special": true
    },
    {
      "id": 3,
      "content": "[SEP]",
      "single_word": false,
      "lstrip": false,
      "rstrip": false,
      "normalized": false,
      "special": true
    }
  ],
  "normalizer": null,
  "pre_tokenizer": {
    "type": "Split",
    "pattern": {
      "String": "[.-]"
    },
    "behavior": "Isolated",
    "invert": false
  },
  "post_processor": null,
  "decoder": null,
  "model": {
    "type": "BPE",
    "dropout": null,
    "unk_token": null,
    "continuing_subword_prefix": null,
    "end_of_word_suffix": null,
    "fuse_unk": false,
    "byte_fallback": false,
    "ignore_merges": false,
    "vocab": {
      "[PAD]": 0,
      "[DELIM]": 1,
      "[END]": 2,
      "[SEP]": 3,
      "-": 4,
      ".": 5,
      "0": 6,
      "1": 7,
      "2": 8,
      "3": 9,
      "4": 10,
      "5": 11,
      "6": 12,
      "7": 13,
      "8": 14,
      "9": 15,
      "a": 16,
      "b": 17,
      "c": 18,
      "d": 19,
      "e": 20,
      "f": 21,
      "g": 22,
      "h": 23,
      "i": 24,
      "j": 25,
      "k": 26,
      "l": 27,
      "m": 28,
      "n": 29,
      "o": 30,
      "p": 31,
      "q": 32,
      "r": 33,
      "s": 34,
      "t": 35,
      "u": 36,
      "v": 37,
      "w": 38,
      "x": 39,
      "y": 40,
      "z": 41,
      "ww": 42,
      "in": 43,
      "er": 44,
      "an": 45,
      "es": 46,
      "ar": 47,
      "en": 48,
      "or": 49,
      "on": 50,
      "al": 51,
      "st": 52,
      "www": 53,
      "at": 54,
      "www.": 55,
      "el": 56,
      "it": 57,
      "ch": 58,
      "et": 59,
      "ic": 60,
      "ap": 61,
      "lo": 62,
      "re": 63,
      "ro": 64,
      "sh": 65,
      "de": 66,
      "co": 67,
      "il": 68,
      "ing": 69,
      "as": 70,
      "am": 71,
      "ac": 72,
      "ad": 73,
      "li": 74,
      "ag": 75,
      "us": 76,
      "is": 77,
      "ur": 78,
      "le": 79,
      "ent": 80,
      "un": 81,
      "ho": 82,
      "ed": 83,
      "ort": 84,
      "eb": 85,
      "th": 86,
      "im": 87,
      "ion": 88,
      "mo": 89,
      "log": 90,
      "e-": 91,
      "op": 92,
      "ol": 93,
      "ec": 94,
      "em": 95,
      "vi": 96,
      "port": 97,
      "tr": 98,
      "ut": 99,
      "ab": 100,
      "pl": 101,
      "est": 102,
      "id": 103,
      "pro": 104,
      "and": 105,
      "bo": 106,
      "ers": 107,
      "up": 108,
      "ig": 109,
      "20": 110,
      "um": 111,
      "ew": 112,
      "do": 113,
      "com": 114,
      "ia": 115,
      "ang": 116,
      "ay": 117,
      "blog": 118,
      "ir": 119,
      "app": 120,
      "ma": 121,
      "fr": 122,
      "to": 123,
      "web": 124,
      "se": 125,
      "sp": 126,
      "my": 127,
      "-c": 128,
      "dn": 129,
      "ian": 130,
      "lin": 131,
      "m.": 132,
      "iv": 133,
      "art": 134,
      "for": 135,
      "ul": 136,
      "are": 137,
      "so": 138,
      "ud": 139,
      "br": 140,
      "ub": 141,
      "la": 142,
      "s-": 143,
      "te": 144,
      "po": 145,
      "ai": 146,
      "ko": 147,
      "pr": 148,
      "con": 149,
      "cs": 150,
      "go": 151,
      "gr": 152,
      "no": 153,
      "stat": 154,
      "cdn": 155,
      "-s": 156,
      "10": 157,
      "ak": 158,
      "io": 159,
      "gu": 160,
      "ex": 161,
      "fo": 162,
      "af": 163,
      "a-": 164,
      "shop": 165,
      "ik": 166,
      "ce": 167,
      "ore": 168,
      "ms": 169,
      "bet": 170,
      "av": 171,
      "ok": 172,
      "new": 173,
      "ation": 174,
      "erv": 175,
      "ass": 176,
      "dev": 177,
      "ev": 178,
      "17": 179,
      "qu": 180,
      "ru": 181,
      "jo": 182,
      "ess": 183,
      "ard": 184,
      "sk": 185,
      "ts": 186,
      "12": 187,
      "he": 188,
      "sup": 189,
      "hu": 190,
      "om": 191,
      "ity": 192,
      "ip": 193,
      "cl": 194,
      "od": 195,
      "au": 196,
      "be": 197,
      "api": 198,
      "all": 199,
      "hel": 200,
      "eng": 201,
      "ter": 202,
      "ist": 203,
      "ark": 204,
      "man": 205,
      "me": 206,
      "med": 207,
      "ca": 208,
      "ind": 209,
      "pt": 210,
      "sc": 211,
      "-p": 212,
      "da": 213,
      "fi": 214,
      "support": 215,
      "ong": 216,
      "ese": 217,
      "uc": 218,
      "18": 219,
      "age": 220,
      "help": 221,
      "ack": 222,
      "--": 223,
      "uk": 224,
      "bs": 225,
      "prod": 226,
      "portal": 227,
      "min": 228,
      "ek": 229,
      ".c": 230,
      "az": 231,
      "ve": 232,
      "19": 233,
      "ain": 234,
      "iz": 235,
      "24": 236,
      "os": 237,
      "ant": 238,
      "ary": 239,
      "wn": 240,
      "13": 241,
      "ht": 242,
      "ba": 243,
      "ot": 244,
      "ph": 245,
      "16": 246,
      ".s": 247,
      "88": 248,
      "res": 249,
      "ne": 250,
      "wor": 251,
      "og": 252,
      "23": 253,
      "00": 254,
      "ber": 255,
      "aw": 256,
      "if": 257,
      "ate": 258,
      "ge": 259,
      "ish": 260,
      "tel": 261,
      "static": 262,
      "y-": 263,
      "14": 264,
      "zh": 265,
      "ents": 266,
      "arch": 267,
      "ill": 268,
      "ure": 269,
      "fa": 270,
      "end": 271,
      "25": 272,
      "cc": 273,
      "sm": 274,
      "ell": 275,
      "test": 276,
      "news": 277,
      "amp": 278,
      "demo": 279,
      "img": 280,
      "15": 281,
      "ja": 282,
      "ets": 283,
      "ital": 284,
      "xy": 285,
      "serv": 286,
      "-b": 287,
      "cy": 288,
      "mail": 289,
      "ct": 290,
      "ie": 291,
      "ss": 292,
      "nl": 293,
      "ib": 294,
      "ver": 295,
      "share": 296,
      "onlin": 297,
      "of": 298,
      "ect": 299,
      "docs": 300,
      "-m": 301,
      "gre": 302,
      "eu": 303,
      "36": 304,
      "ust": 305,
      "ite": 306,
      "info": 307,
      "si": 308,
      "ice": 309,
      "ast": 310,
      "care": 311,
      "ages": 312,
      "26": 313,
      "ck": 314,
      "und": 315,
      "comm": 316,
      "sr": 317,
      "yo": 318,
      "wap": 319,
      "fil": 320,
      "coun": 321,
      "ps": 322,
      "-d": 323,
      "ial": 324,
      "book": 325,
      "net": 326,
      "ke": 327,
      "store": 328,
      "hr": 329,
      "77": 330,
      "ick": 331,
      "cr": 332,
      "land": 333,
      "ha": 334,
      "22": 335,
      "ics": 336,
      "cat": 337,
      "sa": 338,
      "er-": 339,
      "ty": 340,
      "ino": 341,
      "org": 342,
      "media": 343,
      "xn": 344,
      "bu": 345,
      "hou": 346,
      "ans": 347,
      "we": 348,
      "34": 349,
      "i-": 350,
      "arn": 351,
      "dr": 352,
      "libr": 353,
      "fe": 354,
      "ins": 355,
      "hotel": 356,
      "ann": 357,
      "ach": 358,
      "pe": 359,
      "ign": 360,
      "forum": 361,
      "bl": 362,
      "ine": 363,
      "ies": 364,
      "stag": 365,
      ".com": 366,
      "ade": 367,
      "lib": 368,
      "act": 369,
      "des": 370,
      "fl": 371,
      "ail": 372,
      "yu": 373,
      "ah": 374,
      "library": 375,
      "mon": 376,
      "99": 377,
      "int": 378,
      "su": 379,
      "ri": 380,
      "s.": 381,
      "sch": 382,
      "21": 383,
      "loud": 384,
      "ger": 385,
      "di": 386,
      "bil": 387,
      "ive": 388,
      "col": 389,
      "mi": 390,
      "01": 391,
      "old": 392,
      "view": 393,
      "per": 394,
      "der": 395,
      "ji": 396,
      "online": 397,
      "admin": 398,
      "ys": 399,
      "vide": 400,
      "-g": 401,
      "35": 402,
      "pa": 403,
      "ath": 404,
      "link": 405,
      "ta": 406,
      "dk": 407,
      "85": 408,
      "xn--": 409,
      "stud": 410,
      "zhou": 411,
      "mark": 412,
      "cn": 413,
      "sec": 414,
      "staging": 415,
      "cas": 416,
      "11": 417,
      "aut": 418,
      "pre": 419,
      "ug": 420,
      "status": 421,
      "proxy": 422,
      "load": 423,
      "cent": 424,
      "ft": 425,
      "mar": 426,
      "cp": 427,
      "cal": 428,
      "cor": 429,
      "ra": 430,
      "car": 431,
      "tur": 432,
      "04": 433,
      "ace": 434,
      "bg": 435,
      "part": 436,
      "hy": 437,
      "down": 438,
      "sv": 439,
      "lt": 440,
      "ez": 441,
      "27": 442,
      "ep": 443,
      "ment": 444,
      "images": 445,
      "44": 446,
      "uss": 447,
      "tl": 448,
      "assets": 449,
      "ens": 450,
      "ow": 451,
      "cont": 452,
      "sw": 453,
      "one": 454,
      "05": 455,
      "-w": 456,
      "ions": 457,
      "anc": 458,
      "mt": 459,
      "66": 460,
      "alth": 461,
      "ry": 462,
      "mobil": 463,
      "-t": 464,
      "ds": 465,
      "alog": 466,
      "dat": 467,
      "na": 468,
      "lab": 469,
      "reg": 470,
      "inter": 471,
      "ung": 472,
      "ance": 473,
      "ner": 474,
      "ly": 475,
      "video": 476,
      "work": 477,
      "gro": 478,
      "hi": 479,
      "37": 480,
      "a.": 481,
      "son": 482,
      "gam": 483,
      "ank": 484,
      "enc": 485,
      "sy": 486,
      "ff": 487,
      "login": 488,
      "45": 489,
      ".m": 490,
      "29": 491,
      "ee": 492,
      "jp": 493,
      "accoun": 494,
      "fre": 495,
      "38": 496,
      "by": 497,
      "sit": 498,
      "ult": 499,
      "fer": 500,
      "commun": 501,
      "ao": 502,
      "ni": 503,
      "ton": 504,
      "ench": 505,
      "ing-": 506,
      "lv": 507,
      "65": 508,
      "ny": 509,
      "camp": 510,
      "pan": 511,
      "tech": 512,
      "vo": 513,
      "cz": 514,
      "30": 515,
      "28": 516,
      "her": 517,
      "hom": 518,
      "cloud": 519,
      "wp": 520,
      "lot": 521,
      "wo": 522,
      "ga": 523,
      "ices": 524,
      "47": 525,
      "play": 526,
      "sl": 527,
      "nect": 528,
      "69": 529,
      "ali": 530,
      "use": 531,
      "events": 532,
      "let": 533,
      "form": 534,
      "39": 535,
      "pub": 536,
      "market": 537,
      "sd": 538,
      "xi": 539,
      "health": 540,
      "stor": 541,
      "jap": 542,
      "ale": 543,
      "gl": 544,
      "iss": 545,
      "ator": 546,
      "jobs": 547,
      "les": 548,
      "ide": 549,
      "xx": 550,
      "ones": 551,
      "wik": 552,
      "learn": 553,
      "lish": 554,
      "mer": 555,
      "download": 556,
      "wh": 557,
      "ld": 558,
      "str": 559,
      "nam": 560,
      "08": 561,
      "japan": 562,
      "-h": 563,
      "kr": 564,
      "dig": 565,
      "ka": 566,
      "board": 567,
      "bal": 568,
      "bro": 569,
      "get": 570,
      "ker": 571,
      "ci": 572,
      "ey": 573,
      "community": 574,
      "fin": 575,
      "host": 576,
      "catalog": 577,
      "careers": 578,
      "french": 579,
      "att": 580,
      "german": 581,
      "bb": 582,
      "russ": 583,
      "urs": 584,
      "win": 585,
      "live": 586,
      "-n": 587,
      "67": 588,
      "acade": 589,
      "-v": 590,
      "07": 591,
      "gen": 592,
      "auth": 593,
      "tt": 594,
      "ual": 595,
      "read": 596,
      "home": 597,
      "span": 598,
      "utch": 599,
      "bur": 600,
      "har": 601,
      "mem": 602,
      "apps": 603,
      "ugu": 604,
      "ith": 605,
      "ua": 606,
      "55": 607,
      "secure": 608,
      "arab": 609,
      "elop": 610,
      "connect": 611,
      "appl": 612,
      "hn": 613,
      "ky": 614,
      "vis": 615,
      "06": 616,
      "www.m": 617,
      "09": 618,
      "bus": 619,
      "account": 620,
      "kore": 621,
      "pc": 622,
      "rt": 623,
      "ux": 624,
      "develop": 625,
      "pers": 626,
      "dutch": 627,
      "spanish": 628,
      "the": 629,
      "our": 630,
      "89": 631,
      "02": 632,
      "www2": 633,
      "dis": 634,
      "ix": 635,
      "ool": 636,
      "italian": 637,
      "49": 638,
      "ence": 639,
      "mat": 640,
      "red": 641,
      "gy": 642,
      "ille": 643,
      "zz": 644,
      "-r": 645,
      "russian": 646,
      "03": 647,
      "greek": 648,
      "ue": 649,
      "lic": 650,
      "mobile": 651,
      "vn": 652,
      "ors": 653,
      "wiki": 654,
      "ster": 655,
      "igh": 656,
      "mn": 657,
      "-f": 658,
      "japanese": 659,
      "ont": 660,
      "korean": 661,
      "portugu": 662,
      "ris": 663,
      "mc": 664,
      "ings": 665,
      "bar": 666,
      "inv": 667,
      "ams": 668,
      "portuguese": 669,
      "www.s": 670,
      "ina": 671,
      "gh": 672,
      ".www": 673,
      "del": 674,
      "fj": 675,
      "gz": 676,
      "-k": 677,
      "yang": 678,
      "out": 679,
      "pho": 680,
      "dc": 681,
      "box": 682,
      "arabic": 683,
      "ash": 684,
      "bn": 685,
      "pk": 686,
      "ij": 687,
      "tw": 688,
      "leg": 689,
      "sn": 690,
      "48": 691,
      "33": 692,
      "search": 693,
      "mp": 694,
      "press": 695,
      "hub": 696,
      "val": 697,
      "mit": 698,
      "1.": 699,
      "kk": 700,
      "fac": 701,
      "low": 702,
      "train": 703,
      "ord": 704,
      "va": 705,
      "ml": 706,
      "can": 707,
      "75": 708,
      "email": 709,
      "chat": 710,
      "ory": 711,
      "-com": 712,
      "ces": 713,
      "cli": 714,
      "gir": 715,
      "sal": 716,
      "day": 717,
      "wil": 718,
      ".d": 719,
      "ides": 720,
      "jiang": 721,
      ".b": 722,
      "68": 723,
      "ond": 724,
      "che": 725,
      "ight": 726,
      "tool": 727,
      "gd": 728,
      "met": 729,
      "chang": 730,
      "map": 731,
      "www.b": 732,
      "files": 733,
      "cms": 734,
      "service": 735,
      "ons": 736,
      "fs": 737,
      "glo": 738,
      "tv": 739,
      "apply": 740,
      "dy": 741,
      "mus": 742,
      "sel": 743,
      "emp": 744,
      "64": 745,
      "par": 746,
      ".com.": 747,
      "eg": 748,
      "ert": 749,
      "al-": 750,
      "yt": 751,
      "indones": 752,
      "o-": 753,
      "site": 754,
      "en-": 755,
      "mk": 756,
      "ement": 757,
      "uth": 758,
      "pay": 759,
      "uz": 760,
      "indi": 761,
      "ire": 762,
      "es-": 763,
      "produc": 764,
      "ll": 765,
      "sb": 766,
      "tion": 767,
      "digital": 768,
      "content": 769,
      "iy": 770,
      "pol": 771,
      "center": 772,
      "off": 773,
      "d-": 774,
      "club": 775,
      "academy": 776,
      "ica": 777,
      "wat": 778,
      "js": 779,
      "shan": 780,
      "viet": 781,
      "edu": 782,
      "air": 783,
      "beng": 784,
      "star": 785,
      "ham": 786,
      "iw": 787,
      "acc": 788,
      "mb": 789,
      "ef": 790,
      "95": 791,
      "pat": 792,
      "thai": 793,
      "doc": 794,
      "liv": 795,
      "acy": 796,
      "mag": 797,
      "urn": 798,
      "busin": 799,
      "ku": 800,
      "mr": 801,
      "cap": 802,
      "cam": 803,
      "ier": 804,
      "guides": 805,
      "sex": 806,
      "212": 807,
      "ezproxy": 808,
      "fu": 809,
      "indonesian": 810,
      "hindi": 811,
      "san": 812,
      "ery": 813,
      "ext": 814,
      "turk": 815,
      "aa": 816,
      ".r": 817,
      "photo": 818,
      "gs": 819,
      "vietnam": 820,
      "bc": 821,
      "p-": 822,
      "ations": 823,
      "78": 824,
      "eld": 825,
      "ley": 826,
      "hs": 827,
      "casino": 828,
      "design": 829,
      "ios": 830,
      "bengali": 831,
      "training": 832,
      "fc": 833,
      "anet": 834,
      "plat": 835,
      "dash": 836,
      "west": 837,
      "ise": 838,
      "invest": 839,
      "rad": 840,
      "class": 841,
      "beta": 842,
      "ks": 843,
      "46": 844,
      "db": 845,
      "als": 846,
      "ports": 847,
      "dl": 848,
      "fy": 849,
      "mm": 850,
      "law": 851,
      "-in": 852,
      "ju": 853,
      ".share": 854,
      "jw": 855,
      "jin": 856,
      "wood": 857,
      "cre": 858,
      "turkish": 859,
      "asino": 860,
      "tor": 861,
      "group": 862,
      "adm": 863,
      "lig": 864,
      "79": 865,
      "lu": 866,
      "ana": 867,
      "ich": 868,
      "top": 869,
      "arm": 870,
      "image": 871,
      "-re": 872,
      "avel": 873,
      "career": 874,
      "regist": 875,
      "ele": 876,
      "park": 877,
      "auto": 878,
      "blogs": 879,
      "cm": 880,
      "dd": 881,
      "enter": 882,
      "vietnamese": 883,
      "tim": 884,
      "rl": 885,
      "polish": 886,
      "58": 887,
      "sol": 888,
      "zy": 889,
      "2.": 890,
      "business": 891,
      "enn": 892,
      "forms": 893,
      "bi": 894,
      "back": 895,
      "resour": 896,
      "kl": 897,
      "wer": 898,
      "now": 899,
      "stre": 900,
      "sco": 901,
      "2b": 902,
      "ov": 903,
      "persian": 904,
      "-prod": 905,
      "ites": 906,
      "world": 907,
      "alum": 908,
      "wr": 909,
      "tal": 910,
      "ico": 911,
      "ship": 912,
      "ners": 913,
      "ret": 914,
      "wa": 915,
      "green": 916,
      "anal": 917,
      "que": 918,
      "df": 919,
      "du": 920,
      "mg": 921,
      "list": 922,
      "ws": 923,
      "global": 924,
      "services": 925,
      "colle": 926,
      "webmail": 927,
      "59": 928,
      "able": 929,
      "seo": 930,
      "han": 931,
      "hk": 932,
      "ya": 933,
      "ivers": 934,
      ".p": 935,
      "t-": 936,
      "www.k": 937,
      "partner": 938,
      "ns": 939,
      "rec": 940,
      "www.c": 941,
      "wu": 942,
      "den": 943,
      "oc": 944,
      "ars": 945,
      "show": 946,
      "track": 947,
      "57": 948,
      "house": 949,
      "ste": 950,
      "bbs": 951,
      "bj": 952,
      "ical": 953,
      "ls": 954,
      "yi": 955,
      "kn": 956,
      "nan": 957,
      "way": 958,
      "por": 959,
      "ener": 960,
      "on-": 961,
      "lp": 962,
      "cel": 963,
      "e.": 964,
      "event": 965,
      "orth": 966,
      "hai": 967,
      "men": 968,
      "31": 969,
      "ax": 970,
      "sur": 971,
      "dire": 972,
      "ero": 973,
      "h5": 974,
      "lb": 975,
      "ville": 976,
      "jy": 977,
      "98": 978,
      "sg": 979,
      "icom": 980,
      "public": 981,
      "dashboard": 982,
      "king": 983,
      "open": 984,
      "ti": 985,
      "inc": 986,
      "ban": 987,
      "data": 988,
      "pet": 989,
      "za": 990,
      ".w": 991,
      "inst": 992,
      "cast": 993,
      "word": 994,
      "marketing": 995,
      "olf": 996,
      "desk": 997,
      "logy": 998,
      "32": 999,
      "pal": 1000,
      "nat": 1001,
      "pi": 1002,
      "ask": 1003,
      "-casino": 1004,
      "acion": 1005,
      "plus": 1006,
      "ase": 1007,
      "ustom": 1008,
      "ward": 1009,
      "direct": 1010,
      "www.share": 1011,
      "nov": 1012,
      "pass": 1013,
      "yn": 1014,
      "hol": 1015,
      "the-": 1016,
      "esearch": 1017,
      "uan": 1018,
      "shi": 1019,
      "intern": 1020,
      "je": 1021,
      "0-": 1022,
      "tg": 1023,
      "trust": 1024,
      "chec": 1025,
      "ui": 1026,
      "er.": 1027,
      "room": 1028,
      "grad": 1029,
      "aff": 1030,
      "mor": 1031,
      "stage": 1032,
      "eo": 1033,
      "las": 1034,
      "mov": 1035,
      "euro": 1036,
      "cial": 1037,
      "zu": 1038,
      "76": 1039,
      ".shop": 1040,
      "real": 1041,
      "insur": 1042,
      "bel": 1043,
      "preview": 1044,
      "partners": 1045,
      "cd": 1046,
      "cle": 1047,
      "vod": 1048,
      "www.h": 1049,
      "proj": 1050,
      "gi": 1051,
      "ning": 1052,
      "ral": 1053,
      "www-": 1054,
      "ler": 1055,
      "ze": 1056,
      "ada": 1057,
      "2024": 1058,
      "2025": 1059,
      "pres": 1060,
      "cb": 1061,
      "print": 1062,
      "gov": 1063,
      "74": 1064,
      "bor": 1065,
      "city": 1066,
      "mu": 1067,
      "mac": 1068,
      "us-": 1069,
      "mww": 1070,
      "buy": 1071,
      "bers": 1072,
      "ink": 1073,
      "ild": 1074,
      "trans": 1075,
      "lg": 1076,
      "ob": 1077,
      "alumni": 1078,
      "tlh": 1079,
      "bai": 1080,
      "resources": 1081,
      "start": 1082,
      "3g": 1083,
      "aj": 1084,
      "wal": 1085,
      "yua": 1086,
      "cheng": 1087,
      "virt": 1088,
      "spr": 1089,
      "lock": 1090,
      "student": 1091,
      "kar": 1092,
      "ates": 1093,
      "its": 1094,
      "ebo": 1095,
      "travel": 1096,
      "ae": 1097,
      "org.": 1098,
      "in-": 1099,
      "dan": 1100,
      "srla": 1101,
      "tp": 1102,
      "ads": 1103,
      "giris": 1104,
      "plan": 1105,
      "-cdn": 1106,
      "otq": 1107,
      "ford": 1108,
      "school": 1109,
      "black": 1110,
      ".dev": 1111,
      "educ": 1112,
      "54": 1113,
      "www.n": 1114,
      "hous": 1115,
      "cu": 1116,
      "hill": 1117,
      "mic": 1118,
      "dg": 1119,
      "ily": 1120,
      "mx": 1121,
      "pp": 1122,
      "tour": 1123,
      "ias": 1124,
      "admiss": 1125,
      "grap": 1126,
      "sso": 1127,
      "-de": 1128,
      "ulty": 1129,
      "tranet": 1130,
      "pic": 1131,
      "war": 1132,
      "south": 1133,
      "cyrl": 1134,
      "srcyrl": 1135,
      "2023": 1136,
      "ki": 1137,
      "jam": 1138,
      "sam": 1139,
      "dex": 1140,
      "brand": 1141,
      ".h": 1142,
      ".n": 1143,
      "km": 1144,
      "faculty": 1145,
      "sq": 1146,
      "promo": 1147,
      "post": 1148,
      ".v": 1149,
      ".g": 1150,
      "best": 1151,
      "ut-": 1152,
      "2-": 1153,
      "jj": 1154,
      "vip": 1155,
      "tools": 1156,
      "tc": 1157,
      "libguides": 1158,
      ".app": 1159,
      "qing": 1160,
      "63": 1161,
      "agen": 1162,
      ".web": 1163,
      "sim": 1164,
      "zx": 1165,
      "ern": 1166,
      "an-": 1167,
      "www.p": 1168,
      "kb": 1169,
      "tem": 1170,
      "ye": 1171,
      "abet": 1172,
      "40": 1173,
      "ling": 1174,
      "cover": 1175,
      "studio": 1176,
      "life": 1177,
      "sand": 1178,
      "sub": 1179,
      "sum": 1180,
      "click": 1181,
      "ient": 1182,
      "smart": 1183,
      "mart": 1184,
      "food": 1185,
      "manag": 1186,
      "tu": 1187,
      "zo": 1188,
      "www.g": 1189,
      "developer": 1190,
      "ere": 1191,
      "vid": 1192,
      "virtual": 1193,
      "hl": 1194,
      "m-": 1195,
      "ping": 1196,
      "www.d": 1197,
      "bio": 1198,
      "py": 1199,
      "xin": 1200,
      "adv": 1201,
      ".cn": 1202,
      "cf": 1203,
      "lan": 1204,
      "sen": 1205,
      "job": 1206,
      "336": 1207,
      ".prod": 1208,
      "ren": 1209,
      "ara": 1210,
      "2026": 1211,
      "tick": 1212,
      "soft": 1213,
      "87": 1214,
      "sz": 1215,
      "music": 1216,
      "chr": 1217,
      "space": 1218,
      "guang": 1219,
      "hand": 1220,
      "mh": 1221,
      "1-": 1222,
      "fit": 1223,
      "xh": 1224,
      "ftp": 1225,
      "ten": 1226,
      "campus": 1227,
      "amer": 1228,
      "ven": 1229,
      "ari": 1230,
      "tex": 1231,
      "aur": 1232,
      "97": 1233,
      "stem": 1234,
      "itor": 1235,
      "fb": 1236,
      "oh": 1237,
      "pn": 1238,
      "pages": 1239,
      "-serv": 1240,
      "85cc": 1241,
      "-com.": 1242,
      "client": 1243,
      "qi": 1244,
      "main": 1245,
      "56": 1246,
      "team": 1247,
      "cro": 1248,
      "mas": 1249,
      "mal": 1250,
      "tk": 1251,
      "archive": 1252,
      "cour": 1253,
      "51": 1254,
      "smith": 1255,
      "86": 1256,
      "read.share": 1257,
      "ball": 1258,
      "uck": 1259,
      "ama": 1260,
      "m.share": 1261,
      ".blog": 1262,
      "rw": 1263,
      "comp": 1264,
      "sun": 1265,
      "jack": 1266,
      "agent": 1267,
      "char": 1268,
      "burg": 1269,
      "gar": 1270,
      "feed": 1271,
      "cours": 1272,
      "try": 1273,
      "yuan": 1274,
      "84": 1275,
      "pu": 1276,
      "sto": 1277,
      "chi": 1278,
      "c-": 1279,
      "well": 1280,
      "ben": 1281,
      "bed": 1282,
      "git": 1283,
      "94": 1284,
      "qa": 1285,
      "slot": 1286,
      "unt": 1287,
      "ther": 1288,
      "file": 1289,
      ".cdn": 1290,
      "haw": 1291,
      "ou": 1292,
      "don": 1293,
      "50": 1294,
      "expl": 1295,
      "fir": 1296,
      "le-": 1297,
      "sci": 1298,
      ".e": 1299,
      "sf": 1300,
      "review": 1301,
      "server": 1302,
      "mil": 1303,
      "sites": 1304,
      "custom": 1305,
      "mood": 1306,
      "place": 1307,
      "game": 1308,
      "ken": 1309,
      "ox": 1310,
      "www.r": 1311,
      "compan": 1312,
      "master": 1313,
      "analyt": 1314,
      "a4": 1315,
      "md": 1316,
      "www.j": 1317,
      "zhu": 1318,
      "ction": 1319,
      "ric": 1320,
      ".k": 1321,
      "sign": 1322,
      "jia": 1323,
      "guide": 1324,
      "ational": 1325,
      "123": 1326,
      "lio": 1327,
      "nu": 1328,
      "helpdesk": 1329,
      "univers": 1330,
      "bd": 1331,
      "fam": 1332,
      "www.blog": 1333,
      "inn": 1334,
      "movi": 1335,
      "bre": 1336,
      "96": 1337,
      "nc": 1338,
      "light": 1339,
      "-l": 1340,
      "ano": 1341,
      ".t": 1342,
      "ental": 1343,
      "beach": 1344,
      "aud": 1345,
      "age-": 1346,
      "fest": 1347,
      "hd": 1348,
      "pg": 1349,
      "ering": 1350,
      "aper": 1351,
      "gall": 1352,
      "2022": 1353,
      "chool": 1354,
      "order": 1355,
      "scr": 1356,
      "cho": 1357,
      "dong": 1358,
      "self": 1359,
      "hb": 1360,
      "research": 1361,
      "tre": 1362,
      "access": 1363,
      "rock": 1364,
      "888": 1365,
      "golf": 1366,
      "www.v": 1367,
      "iving": 1368,
      "forums": 1369,
      "gold": 1370,
      "ago": 1371,
      "them": 1372,
      "bay": 1373,
      "-4": 1374,
      "60": 1375,
      "usa": 1376,
      "journ": 1377,
      "mad": 1378,
      "wid": 1379,
      "zj": 1380,
      "stg": 1381,
      "sj": 1382,
      "yy": 1383,
      ".ec": 1384,
      "pen": 1385,
      "pod": 1386,
      "bot": 1387,
      "rol": 1388,
      "stream": 1389,
      "tx": 1390,
      "lex": 1391,
      "john": 1392,
      "fort": 1393,
      "big": 1394,
      "gg": 1395,
      "wwww": 1396,
      "code": 1397,
      "lor": 1398,
      "pur": 1399,
      "vv": 1400,
      "2021": 1401,
      "social": 1402,
      "-1": 1403,
      "tai": 1404,
      "ado": 1405,
      "-hotel": 1406,
      "a2": 1407,
      "a3": 1408,
      "hor": 1409,
      "commer": 1410,
      "rel": 1411,
      "sho": 1412,
      "jing": 1413,
      "ition": 1414,
      "ives": 1415,
      "ats": 1416,
      "ros": 1417,
      "ei": 1418,
      "ron": 1419,
      "lev": 1420,
      "field": 1421,
      "kal": 1422,
      "ments": 1423,
      "analytics": 1424,
      "bank": 1425,
      "gc": 1426,
      "user": 1427,
      "saf": 1428,
      "affil": 1429,
      "vr": 1430,
      "wi": 1431,
      "www.www": 1432,
      "thom": 1433,
      "wang": 1434,
      "ile": 1435,
      "jx": 1436,
      "v2": 1437,
      "clark": 1438,
      "fair": 1439,
      "affili": 1440,
      "lat": 1441,
      "ram": 1442,
      "-con": 1443,
      "grand": 1444,
      "3d": 1445,
      "hc": 1446,
      "mel": 1447,
      "quest": 1448,
      "moodle": 1449,
      "-web": 1450,
      "bab": 1451,
      "mid": 1452,
      "side": 1453,
      "learning": 1454,
      "a5": 1455,
      "kit": 1456,
      "www.f": 1457,
      "365": 1458,
      "education": 1459,
      "gb": 1460,
      "s24": 1461,
      "esc": 1462,
      "shang": 1463,
      "utions": 1464,
      "168": 1465,
      "mf": 1466,
      "el-": 1467,
      "ute": 1468,
      "priv": 1469,
      "admissions": 1470,
      "s2": 1471,
      "www.t": 1472,
      "booking": 1473,
      "ser": 1474,
      "wx": 1475,
      "rest": 1476,
      "ett": 1477,
      ".cs": 1478,
      "bib": 1479,
      "east": 1480,
      "uat": 1481,
      "ien": 1482,
      "104": 1483,
      "exper": 1484,
      "ness": 1485,
      "spe": 1486,
      ".cloud": 1487,
      "ware": 1488,
      "2019": 1489,
      "gt": 1490,
      "esh": 1491,
      "line": 1492,
      "ights": 1493,
      "ia-": 1494,
      "lak": 1495,
      "progr": 1496,
      "servic": 1497,
      "61": 1498,
      "uch": 1499,
      "max": 1500,
      "cons": 1501,
      "m.french": 1502,
      "brid": 1503,
      "zi": 1504,
      "anch": 1505,
      "2020": 1506,
      "bas": 1507,
      "card": 1508,
      "uf": 1509,
      "a1": 1510,
      "lit": 1511,
      "vol": 1512,
      "roy": 1513,
      "ake": 1514,
      "hal": 1515,
      "ific": 1516,
      "iver": 1517,
      "member": 1518,
      "your": 1519,
      "road": 1520,
      "phil": 1521,
      "teen": 1522,
      "not": 1523,
      "gal": 1524,
      "ave": 1525,
      "mont": 1526,
      "north": 1527,
      "ington": 1528,
      "links": 1529,
      "borg": 1530,
      "ater": 1531,
      "2017": 1532,
      "courses": 1533,
      "90": 1534,
      "yan": 1535,
      "index": 1536,
      "3-": 1537,
      "gas": 1538,
      "intranet": 1539,
      "insurance": 1540,
      "ata": 1541,
      "ami": 1542,
      "ident": 1543,
      "beaut": 1544,
      "pair": 1545,
      "bit": 1546,
      "qq": 1547,
      "100": 1548,
      "-ca": 1549,
      "cdn-": 1550,
      "newslet": 1551,
      "calend": 1552,
      "42": 1553,
      "dx": 1554,
      "gn": 1555,
      "landing": 1556,
      ".f": 1557,
      "dz": 1558,
      "next": 1559,
      "sty": 1560,
      "ame": 1561,
      "arts": 1562,
      "online-": 1563,
      "bon": 1564,
      "coach": 1565,
      "power": 1566,
      "53": 1567,
      "hv": 1568,
      "platform": 1569,
      "cul": 1570,
      "wc": 1571,
      "illa": 1572,
      "ility": 1573,
      "ebook": 1574,
      "mir": 1575,
      "qr": 1576,
      "legacy": 1577,
      "erson": 1578,
      "members": 1579,
      "christ": 1580,
      "70": 1581,
      "cart": 1582,
      "ston": 1583,
      "m.german": 1584,
      "you": 1585,
      "62": 1586,
      "his": 1587,
      "poker": 1588,
      "baike": 1589,
      ".staging": 1590,
      "apk": 1591,
      "led": 1592,
      "m.dutch": 1593,
      "prim": 1594,
      "sky": 1595,
      ".lib": 1596,
      "yun": 1597,
      "front": 1598,
      "-j": 1599,
      ".wp": 1600,
      "bul": 1601,
      "wis": 1602,
      "key": 1603,
      "43": 1604,
      "flow": 1605,
      "hp": 1606,
      "xian": 1607,
      "asy": 1608,
      "meet": 1609,
      "ift": 1610,
      "83": 1611,
      "sport": 1612,
      "els": 1613,
      "county": 1614,
      "report": 1615,
      "oper": 1616,
      "72": 1617,
      "73": 1618,
      "hall": 1619,
      "books": 1620,
      "ng": 1621,
      "ines": 1622,
      "town": 1623,
      "athlet": 1624,
      ".my": 1625,
      "80": 1626,
      "cur": 1627,
      "apart": 1628,
      "cv": 1629,
      "ique": 1630,
      "lar": 1631,
      "hua": 1632,
      "bf": 1633,
      "ej": 1634,
      "zhong": 1635,
      "rich": 1636,
      "harris": 1637,
      "uy": 1638,
      "ita": 1639,
      "company": 1640,
      "-2": 1641,
      "erg": 1642,
      "local": 1643,
      "reserv": 1644,
      "tickets": 1645,
      "gp": 1646,
      "rc": 1647,
      "rs": 1648,
      "www1": 1649,
      "about": 1650,
      "storage": 1651,
      "radio": 1652,
      "bh": 1653,
      "chen": 1654,
      "loy": 1655,
      "cook": 1656,
      "777": 1657,
      "bell": 1658,
      "kat": 1659,
      "nor": 1660,
      "wel": 1661,
      "free": 1662,
      "mes": 1663,
      "wl": 1664,
      "wy": 1665,
      "m.greek": 1666,
      "-api": 1667,
      "kout": 1668,
      "organ": 1669,
      "games": 1670,
      "dm": 1671,
      "register": 1672,
      "dj": 1673,
      "kon": 1674,
      "-pro": 1675,
      "a9": 1676,
      "41": 1677,
      "avi": 1678,
      "sx": 1679,
      ".sites": 1680,
      "central": 1681,
      "join": 1682,
      "xia": 1683,
      "eco": 1684,
      "aft": 1685,
      "b2b": 1686,
      "chem": 1687,
      "willi": 1688,
      "-co": 1689,
      "ior": 1690,
      "ures": 1691,
      "hh": 1692,
      "en.": 1693,
      "chuan": 1694,
      "2018": 1695,
      "mich": 1696,
      "ance-": 1697,
      "ding": 1698,
      "fx": 1699,
      "orn": 1700,
      "m.italian": 1701,
      "m.arabic": 1702,
      "engine": 1703,
      "production": 1704,
      "calendar": 1705,
      "shu": 1706,
      "accounts": 1707,
      ".library": 1708,
      "jl": 1709,
      "sil": 1710,
      "s23": 1711,
      "etr": 1712,
      "ruit": 1713,
      "ech": 1714,
      "hen": 1715,
      "www.www.": 1716,
      "roll": 1717,
      "bir": 1718,
      "giving": 1719,
      "esk": 1720,
      "ice-": 1721,
      "ectr": 1722,
      "sour": 1723,
      "los": 1724,
      "blu": 1725,
      "ium": 1726,
      "jc": 1727,
      "ork": 1728,
      "faq": 1729,
      ".demo": 1730,
      "fun": 1731,
      "urity": 1732,
      "corpor": 1733,
      "developers": 1734,
      "jz": 1735,
      "wb": 1736,
      "www3": 1737,
      "resort": 1738,
      "52": 1739,
      "ceb": 1740,
      "oo": 1741,
      "sole": 1742,
      "ih": 1743,
      "yp": 1744,
      "bill": 1745,
      "build": 1746,
      "international": 1747,
      "82": 1748,
      "fz": 1749,
      "upload": 1750,
      "found": 1751,
      "fm": 1752,
      "point": 1753,
      "vey": 1754,
      "fast": 1755,
      "-dev": 1756,
      "dar": 1757,
      "www.w": 1758,
      "ids": 1759,
      "berg": 1760,
      "water": 1761,
      "biz": 1762,
      "careertraining": 1763,
      "europe": 1764,
      "dt": 1765,
      "gat": 1766,
      "kh": 1767,
      "vc": 1768,
      "-ch": 1769,
      "pos": 1770,
      "girisicom": 1771,
      "newsletter": 1772,
      "dal": 1773,
      "lub": 1774,
      "esp": 1775,
      "crm": 1776,
      "nz": 1777,
      "s25": 1778,
      "app.": 1779,
      "geo": 1780,
      "bt": 1781,
      "ration": 1782,
      "elearn": 1783,
      "91": 1784,
      "lc": 1785,
      "love": 1786,
      "unch": 1787,
      "ects": 1788,
      "ution": 1789,
      "cp-": 1790,
      "hus": 1791,
      "english": 1792,
      "aign": 1793,
      "et-": 1794,
      "arden": 1795,
      "nj": 1796,
      "vill": 1797,
      "olar": 1798,
      "long": 1799,
      "rob": 1800,
      "lead": 1801,
      "ube": 1802,
      "prd": 1803,
      "2117": 1804,
      "own": 1805,
      "imp": 1806,
      "vir": 1807,
      "discover": 1808,
      "ful": 1809,
      "tz": 1810,
      "alo": 1811,
      "recruit": 1812,
      "93": 1813,
      "i.": 1814,
      "xing": 1815,
      "m.russian": 1816,
      "stats": 1817,
      "xiang": 1818,
      "a6": 1819,
      "downloads": 1820,
      "dw": 1821,
      "mis": 1822,
      "ine-": 1823,
      "ora": 1824,
      "alt": 1825,
      "de-": 1826,
      "tra": 1827,
      "dv": 1828,
      "find": 1829,
      "vas": 1830,
      "lis": 1831,
      "2016": 1832,
      "m.korean": 1833,
      "good": 1834,
      "-patt": 1835,
      "oz": 1836,
      "mach": 1837,
      "m.spanish": 1838,
      "journal": 1839,
      "athletics": 1840,
      "atl": 1841,
      "posit": 1842,
      "afe": 1843,
      "ards": 1844,
      "podcast": 1845,
      "92": 1846,
      "cx": 1847,
      "high": 1848,
      "jk": 1849,
      "jal": 1850,
      "s3": 1851,
      "m.japanese": 1852,
      "f-": 1853,
      "gw": 1854,
      "jr": 1855,
      "360": 1856,
      "scrip": 1857,
      "dh": 1858,
      "orig": 1859,
      "bout": 1860,
      "mw": 1861,
      "shar": 1862,
      "api-": 1863,
      "fire": 1864,
      "ney": 1865,
      "bookstore": 1866,
      "erk": 1867,
      "une": 1868,
      "eck": 1869,
      "angel": 1870,
      "wap.": 1871,
      "iel": 1872,
      "van": 1873,
      "aps": 1874,
      "management": 1875,
      ".de": 1876,
      "white": 1877,
      "apo": 1878,
      "conf": 1879,
      "ify": 1880,
      "anner": 1881,
      "gx": 1882,
      "uro": 1883,
      "as-": 1884,
      "videos": 1885,
      "spring": 1886,
      "ena": 1887,
      "ssb": 1888,
      "students": 1889,
      "www.l": 1890,
      "she": 1891,
      "spa": 1892,
      "network": 1893,
      "fw": 1894,
      "sem": 1895,
      "ting": 1896,
      "boo": 1897,
      "medic": 1898,
      "fd": 1899,
      "ifi": 1900,
      "staff": 1901,
      "econ": 1902,
      "super": 1903,
      "-en": 1904,
      "tn": 1905,
      "vel": 1906,
      "lou": 1907,
      "mot": 1908,
      "tj": 1909,
      "ida": 1910,
      "m.portuguese": 1911,
      "hz": 1912,
      "hop": 1913,
      "eds": 1914,
      "anda": 1915,
      "fp": 1916,
      "wordpress": 1917,
      "aus": 1918,
      "qx": 1919,
      "rid": 1920,
      "anz": 1921,
      "jackson": 1922,
      "ln": 1923,
      "anim": 1924,
      "ura": 1925,
      "mast": 1926,
      "classic": 1927,
      "afr": 1928,
      "inte": 1929,
      "ite-": 1930,
      "aven": 1931,
      "flor": 1932,
      "movie": 1933,
      ".co": 1934,
      "71": 1935,
      "ities": 1936,
      "dre": 1937,
      "qy": 1938,
      "hosp": 1939,
      "project": 1940,
      "hot": 1941,
      "ference": 1942,
      "oy": 1943,
      "tian": 1944,
      "lif": 1945,
      "selfservice": 1946,
      "d2": 1947,
      "ed-": 1948,
      "trad": 1949,
      "fly": 1950,
      "ences": 1951,
      "umb": 1952,
      ".us": 1953,
      "bad": 1954,
      "dp": 1955,
      "pas": 1956,
      "eway": 1957,
      "-city": 1958,
      "college": 1959,
      "n-": 1960,
      "rv": 1961,
      "sar": 1962,
      "peop": 1963,
      "marketplace": 1964,
      "heb": 1965,
      "ester": 1966,
      "checkout": 1967,
      "2015": 1968,
      "redit": 1969,
      "213": 1970,
      "aid": 1971,
      "hong": 1972,
      "ato": 1973,
      "plate": 1974,
      "phys": 1975,
      "hotel-": 1976,
      "check": 1977,
      "university": 1978,
      "hg": 1979,
      "jian": 1980,
      "ming": 1981,
      "advis": 1982,
      "premi": 1983,
      "bx": 1984,
      "bud": 1985,
      "hun": 1986,
      "til": 1987,
      "ety": 1988,
      "magaz": 1989,
      "gallery": 1990,
      "dq": 1991,
      "kz": 1992,
      "stock": 1993,
      "es.": 1994,
      "alex": 1995,
      "hj": 1996,
      "ona": 1997,
      "ebsco": 1998,
      "linux": 1999,
      "office": 2000,
      "-patti-": 2001,
      "s1": 2002,
      "sports": 2003,
      "ar-": 2004,
      "head": 2005,
      "lang": 2006,
      "ple": 2007,
      "date": 2008,
      "ea": 2009,
      "hist": 2010,
      "graphy": 2011,
      ".email": 2012,
      "c.": 2013,
      "cg": 2014,
      "nb": 2015,
      "ira": 2016,
      "hx": 2017,
      "kou": 2018,
      "ervices": 2019,
      "asset": 2020,
      "product": 2021,
      "beauty": 2022,
      "81": 2023,
      "know": 2024,
      "vent": 2025,
      "stru": 2026,
      "island": 2027,
      "-mo": 2028,
      "ear": 2029,
      "fund": 2030,
      "kel": 2031,
      "001": 2032,
      "iq": 2033,
      "rober": 2034,
      "directory": 2035,
      "cq": 2036,
      "fan": 2037,
      "hmn": 2038,
      "uw": 2039,
      "aya": 2040,
      "ival": 2041,
      "panel": 2042,
      "james": 2043,
      "b2": 2044,
      "hq": 2045,
      "inet": 2046,
      "asp": 2047,
      "vist": 2048,
      "fri": 2049,
      "medi": 2050,
      "-test": 2051,
      "fut": 2052,
      "hm": 2053,
      "nx": 2054,
      "ager": 2055,
      "investor": 2056,
      "bat": 2057,
      "mult": 2058,
      "electr": 2059,
      "ive-": 2060,
      "engage": 2061,
      "brown": 2062,
      "collect": 2063,
      "jan": 2064,
      "pm": 2065,
      "pli": 2066,
      "homes": 2067,
      "martin": 2068,
      "eter": 2069,
      "ender": 2070,
      "explor": 2071,
      ".l": 2072,
      "kan": 2073,
      "m.bengali": 2074,
      "useum": 2075,
      "dam": 2076,
      "gor": 2077,
      "tro": 2078,
      "vin": 2079,
      "wers": 2080,
      "and-": 2081,
      "a7": 2082,
      "ic-": 2083,
      "lee": 2084,
      "folio": 2085,
      "ever": 2086,
      "izhou": 2087,
      "hum": 2088,
      "arr": 2089,
      "asia": 2090,
      "kov": 2091,
      "console": 2092,
      "999": 2093,
      "xn----": 2094,
      "first": 2095,
      "run": 2096,
      "at-": 2097,
      "young": 2098,
      "wei": 2099,
      "micro": 2100,
      "jun": 2101,
      "math": 2102,
      "aro": 2103,
      "sher": 2104,
      "-cn": 2105,
      "instit": 2106,
      "how": 2107,
      "labs": 2108,
      "system": 2109,
      "americ": 2110,
      "consult": 2111,
      "foundation": 2112,
      "bz": 2113,
      "cw": 2114,
      "stad": 2115,
      "agr": 2116,
      "holes": 2117,
      "gener": 2118,
      "cert": 2119,
      "nn": 2120,
      "wom": 2121,
      "2014": 2122,
      "cdn2": 2123,
      ".test": 2124,
      "4d": 2125,
      "aar": 2126,
      "ene": 2127,
      "eli": 2128,
      "ador": 2129,
      "ika": 2130,
      "ike": 2131,
      "docum": 2132,
      "escort": 2133,
      "-us": 2134,
      "bin": 2135,
      "bol": 2136,
      "lad": 2137,
      "trade": 2138,
      "spec": 2139,
      "mv": 2140,
      "page": 2141,
      "ito": 2142,
      "is-": 2143,
      "investors": 2144,
      "era": 2145,
      "rose": 2146,
      "tam": 2147,
      "wall": 2148,
      "prof": 2149,
      "website": 2150,
      "foot": 2151,
      "austr": 2152,
      "campaign": 2153,
      "home-": 2154,
      "cab": 2155,
      "pop": 2156,
      "vic": 2157,
      "ete": 2158,
      "tek": 2159,
      "hon": 2160,
      "lik": 2161,
      "bahis": 2162,
      "color": 2163,
      "jen": 2164,
      "tm": 2165,
      "innov": 2166,
      "erp": 2167,
      "anel": 2168,
      "oro": 2169,
      "free-": 2170,
      "photos": 2171,
      "a8": 2172,
      "gin": 2173,
      "qz": 2174,
      "rent": 2175,
      "edia": 2176,
      "awa": 2177,
      "financ": 2178,
      "projects": 2179,
      "elearning": 2180,
      "people": 2181,
      "bm": 2182,
      "give": 2183,
      "wan": 2184,
      "ace-": 2185,
      "ula": 2186,
      "foto": 2187,
      "arket": 2188,
      "luc": 2189,
      "wz": 2190,
      "yz": 2191,
      "hair": 2192,
      "hospital": 2193,
      "5g": 2194,
      "u-": 2195,
      "vac": 2196,
      "alb": 2197,
      "ales": 2198,
      "bao": 2199,
      "cord": 2200,
      ".eu": 2201,
      "iqu": 2202,
      "oms": 2203,
      "thes": 2204,
      "andbox": 2205,
      "ips": 2206,
      "speed": 2207,
      "ebscohost": 2208,
      ".dk": 2209,
      "kj": 2210,
      "sing": 2211,
      "vers": 2212,
      "person": 2213,
      "blo": 2214,
      "bang": 2215,
      "www.shop": 2216,
      "cher": 2217,
      "ette": 2218,
      "change": 2219,
      "ense": 2220,
      "guest": 2221,
      "teen-patti-": 2222,
      "tay": 2223,
      "agu": 2224,
      "unit": 2225,
      "holi": 2226,
      "visit": 2227,
      "girl": 2228,
      "kur": 2229,
      "nag": 2230,
      "m.indonesian": 2231,
      "archives": 2232,
      "ie-": 2233,
      "yl": 2234,
      "adel": 2235,
      "2118": 2236,
      "sales": 2237,
      "wards": 2238,
      "corporate": 2239,
      "pin": 2240,
      "-fr": 2241,
      "gis": 2242,
      "andro": 2243,
      "istr": 2244,
      "aws": 2245,
      "thomas": 2246,
      "a0": 2247,
      "jones": 2248,
      "nd": 2249,
      "x-": 2250,
      "huang": 2251,
      "indust": 2252,
      "h4": 2253,
      "ate-": 2254,
      "china": 2255,
      "urch": 2256,
      "iris": 2257,
      "sitem": 2258,
      "feedback": 2259,
      "gun": 2260,
      "ror": 2261,
      "set": 2262,
      "-o": 2263,
      ".na": 2264,
      "psy": 2265,
      "energy": 2266,
      "commerce": 2267,
      ".en": 2268,
      "bp": 2269,
      "gk": 2270,
      "pack": 2271,
      "xu": 2272,
      "200": 2273,
      "m.hindi": 2274,
      "far": 2275,
      "g-": 2276,
      "gan": 2277,
      "asso": 2278,
      "ima": 2279,
      "insights": 2280,
      "techno": 2281,
      "but": 2282,
      "cer": 2283,
      "cla": 2284,
      "aler": 2285,
      "ication": 2286,
      "roup": 2287,
      "embed": 2288,
      "ability": 2289,
      "allen": 2290,
      "zhan": 2291,
      "activ": 2292,
      "royal": 2293,
      "bac": 2294,
      "cess": 2295,
      "equ": 2296,
      "ii": 2297,
      "ional": 2298,
      "baby": 2299,
      "bk": 2300,
      "cit": 2301,
      "dro": 2302,
      "brook": 2303,
      "employ": 2304,
      "widget": 2305,
      "program": 2306,
      "clin": 2307,
      "oa": 2308,
      "dom": 2309,
      "india": 2310,
      "ample": 2311,
      "family": 2312,
      "d3": 2313,
      "vpn": 2314,
      "ison": 2315,
      "zhang": 2316,
      ".o": 2317,
      "k-": 2318,
      "rain": 2319,
      "2013": 2320,
      "176": 2321,
      "1765": 2322,
      "ssl": 2323,
      "contact": 2324,
      "software": 2325,
      "atlant": 2326,
      "magazine": 2327,
      "jq": 2328,
      "sis": 2329,
      "york": 2330,
      "update": 2331,
      "inson": 2332,
      "integr": 2333,
      "det": 2334,
      "over": 2335,
      "paper": 2336,
      "v3": 2337,
      "xz": 2338,
      "inar": 2339,
      "www.z": 2340,
      "signup": 2341,
      "holiday": 2342,
      "kir": 2343,
      "rac": 2344,
      "uo": 2345,
      "it-": 2346,
      "chic": 2347,
      "lov": 2348,
      "pot": 2349,
      ".i": 2350,
      "lam": 2351,
      "nes": 2352,
      "atalog": 2353,
      "eth": 2354,
      "dem": 2355,
      "security": 2356,
      "-prod.ec": 2357,
      "survey": 2358,
      "lips": 2359,
      "edge": 2360,
      "api.": 2361,
      "blue": 2362,
      "fang": 2363,
      "gm": 2364,
      "kun": 2365,
      "pac": 2366,
      "tan": 2367,
      "wm": 2368,
      "plann": 2369,
      "-gam": 2370,
      "meme": 2371,
      "eh": 2372,
      "gq": 2373,
      "gv": 2374,
      "len": 2375,
      "tong": 2376,
      "alli": 2377,
      "elle": 2378,
      "estate": 2379,
      "ble": 2380,
      "cj": 2381,
      "mall": 2382,
      "sant": 2383,
      "chell": 2384,
      "ury": 2385,
      "ation-": 2386,
      "finance": 2387,
      "bridge": 2388,
      "dor": 2389,
      "lux": 2390,
      "xt": 2391,
      "adres": 2392,
      "ander": 2393,
      "pool": 2394,
      "kole": 2395,
      "buil": 2396,
      "-to": 2397,
      "itz": 2398,
      "ape": 2399,
      "eca": 2400,
      "erver": 2401,
      "legal": 2402,
      "products": 2403,
      "password": 2404,
      "hang": 2405,
      "sav": 2406,
      "wen": 2407,
      "ini": 2408,
      "www.de": 2409,
      "ism": 2410,
      "under": 2411,
      "holesale": 2412,
      "hil": 2413,
      "nik": 2414,
      "alph": 2415,
      "cool": 2416,
      "ime": 2417,
      "cdn1": 2418,
      "maps": 2419,
      "loc": 2420,
      "acon": 2421,
      "mak": 2422,
      "corp": 2423,
      "cheap": 2424,
      "style": 2425,
      "williams": 2426,
      "jn": 2427,
      "ym": 2428,
      "gran": 2429,
      "oss": 2430,
      "tracking": 2431,
      "explore": 2432,
      "customer": 2433,
      "bag": 2434,
      "oak": 2435,
      "pad": 2436,
      "sha": 2437,
      "shen": 2438,
      "upport": 2439,
      "bet-": 2440,
      "grow": 2441,
      "privacy": 2442,
      "ais": 2443,
      "b5": 2444,
      "ying": 2445,
      "eder": 2446,
      "ider": 2447,
      "beij": 2448,
      "medical": 2449,
      "aint": 2450,
      "pharm": 2451,
      "eller": 2452,
      "ather": 2453,
      "080": 2454,
      "locksmith": 2455,
      "house-": 2456,
      "hab": 2457,
      "2012": 2458,
      "static-": 2459,
      "bw": 2460,
      "fg": 2461,
      "nm": 2462,
      "swe": 2463,
      "ania": 2464,
      "chin": 2465,
      "lient": 2466,
      "lash": 2467,
      "casin": 2468,
      "course": 2469,
      "bv": 2470,
      "fact": 2471,
      "nic": 2472,
      "pv": 2473,
      "tar": 2474,
      "atch": 2475,
      "lia": 2476,
      "com.": 2477,
      "origin": 2478,
      "taylor": 2479,
      "fh": 2480,
      "iam": 2481,
      "nh": 2482,
      "pd": 2483,
      "cooper": 2484,
      "cash": 2485,
      "live-": 2486,
      "b8": 2487,
      "cup": 2488,
      "mz": 2489,
      "ald": 2490,
      "graph": 2491,
      "pul": 2492,
      "spot": 2493,
      "-cent": 2494,
      "quan": 2495,
      "morris": 2496,
      "aurant": 2497,
      ".preview": 2498,
      "cut": 2499,
      "gang": 2500,
      "pit": 2501,
      "ala": 2502,
      "atr": 2503,
      "quiz": 2504,
      "clients": 2505,
      ".j": 2506,
      "kw": 2507,
      "ati": 2508,
      "lip": 2509,
      "mount": 2510,
      "ring": 2511,
      "tis": 2512,
      "eto": 2513,
      "olutions": 2514,
      "tri": 2515,
      "andong": 2516,
      "aku": 2517,
      "170": 2518,
      "manage": 2519,
      "flu": 2520,
      "johnson": 2521,
      "lms": 2522,
      "rr": 2523,
      "moore": 2524,
      "tran": 2525,
      "ence-": 2526,
      "street": 2527,
      "wd": 2528,
      "yon": 2529,
      "affiliates": 2530,
      "tec": 2531,
      "wash": 2532,
      "enix": 2533,
      "ervice": 2534,
      "178": 2535,
      "vegas": 2536,
      "138": 2537,
      "pson": 2538,
      "ondon": 2539,
      "3.": 2540,
      "fv": 2541,
      "gj": 2542,
      "nord": 2543,
      "tag": 2544,
      "uv": 2545,
      "preprod": 2546,
      "yin": 2547,
      "remo": 2548,
      "refer": 2549,
      "rom": 2550,
      "ili": 2551,
      "edit": 2552,
      "cdn.": 2553,
      "-slot": 2554,
      "davi": 2555,
      "development": 2556,
      "agency": 2557,
      "farm": 2558,
      "kc": 2559,
      "zen": 2560,
      "chong": 2561,
      "lake": 2562,
      "fash": 2563,
      "hotels": 2564,
      "android": 2565,
      "e2": 2566,
      "editor": 2567,
      "tract": 2568,
      ".site": 2569,
      "hosting": 2570,
      "mind": 2571,
      "uit": 2572,
      "apac": 2573,
      "spir": 2574,
      "zhi": 2575,
      "scott": 2576,
      "sandbox": 2577,
      "boutique": 2578,
      "-3": 2579,
      "kaz": 2580,
      "rap": 2581,
      "wind": 2582,
      "look": 2583,
      "url": 2584,
      "zhen": 2585,
      "annel": 2586,
      "cad": 2587,
      "din": 2588,
      "e3": 2589,
      "ffe": 2590,
      "kai": 2591,
      "z1": 2592,
      "portfolio": 2593,
      "story": 2594,
      "watch": 2595,
      "natur": 2596,
      "aqu": 2597,
      "c4": 2598,
      "kt": 2599,
      "kv": 2600,
      "qh": 2601,
      "wv": 2602,
      "eries": 2603,
      "ane": 2604,
      "ores": 2605,
      "ply": 2606,
      "proper": 2607,
      "ills": 2608,
      "ection": 2609,
      ".portal": 2610,
      "b-": 2611,
      "b1": 2612,
      "nex": 2613,
      "ems": 2614,
      "anderson": 2615,
      "web-": 2616,
      "-repair": 2617,
      "beijing": 2618,
      "flo": 2619,
      "kin": 2620,
      "may": 2621,
      "yc": 2622,
      "stu": 2623,
      "elev": 2624,
      "olen": 2625,
      "body": 2626,
      "science": 2627,
      "jd": 2628,
      "ario": 2629,
      "idad": 2630,
      "answers": 2631,
      "mitchell": 2632,
      "creat": 2633,
      "enterpr": 2634,
      "solutions": 2635,
      "fashion": 2636,
      "-ma": 2637,
      "ge-": 2638,
      "morgan": 2639,
      "rd": 2640,
      "zw": 2641,
      "hoto": 2642,
      "som": 2643,
      "conference": 2644,
      "hello": 2645,
      "-pa": 2646,
      "count": 2647,
      "ground": 2648,
      "valley": 2649,
      "canvas": 2650,
      "experi": 2651,
      "c2": 2652,
      "kam": 2653,
      "ray": 2654,
      "ido": 2655,
      "hui": 2656,
      "izz": 2657,
      "ials": 2658,
      "haus": 2659,
      "nw": 2660,
      "www.o": 2661,
      "ento": 2662,
      "aka": 2663,
      "177": 2664,
      "vision": 2665,
      "talk": 2666,
      ".api": 2667,
      "band": 2668,
      "dag": 2669,
      "fle": 2670,
      "np": 2671,
      "v1": 2672,
      "ision": 2673,
      "utor": 2674,
      "anton": 2675,
      "site-": 2676,
      "-5": 2677,
      ".x": 2678,
      "ael": 2679,
      "c1": 2680,
      "iti": 2681,
      "lewis": 2682,
      "via": 2683,
      "force": 2684,
      "aire": 2685,
      "academic": 2686,
      "registration": 2687,
      ".u": 2688,
      "orient": 2689,
      "chu": 2690,
      "cos": 2691,
      "adams": 2692,
      "bra": 2693,
      "money": 2694,
      "easy": 2695,
      "temp": 2696,
      "vs": 2697,
      "zs": 2698,
      "ating": 2699,
      "oly": 2700,
      "emer": 2701,
      "expo": 2702,
      "ce-": 2703,
      "d1": 2704,
      "fon": 2705,
      "hard": 2706,
      "wed": 2707,
      "esign": 2708,
      "theb": 2709,
      "boy": 2710,
      "study": 2711,
      "dent": 2712,
      "f0": 2713,
      "f4": 2714,
      "gel": 2715,
      "dao": 2716,
      "uku": 2717,
      "login.": 2718,
      "giriscom": 2719,
      "robinson": 2720,
      "c5": 2721,
      "hack": 2722,
      "lx": 2723,
      "px": 2724,
      "sat": 2725,
      "alia": 2726,
      "roof": 2727,
      "shui": 2728,
      "asi": 2729,
      "express": 2730,
      "shanghai": 2731,
      "adresicom": 2732,
      "-0": 2733,
      "dir": 2734,
      "f2": 2735,
      "gur": 2736,
      "any": 2737,
      "ori": 2738,
      "imag": 2739,
      "idp": 2740,
      "bey": 2741,
      "daily": 2742,
      "247": 2743,
      "-services": 2744,
      "phillips": 2745,
      "cand": 2746,
      "nt": 2747,
      "www.my": 2748,
      "reposit": 2749,
      "andre": 2750,
      "ews": 2751,
      "m.turkish": 2752,
      "m.vietnamese": 2753,
      "drive": 2754,
      "scholar": 2755,
      "aq": 2756,
      "jt": 2757,
      "ms-": 2758,
      "ote": 2759,
      "eri": 2760,
      "row": 2761,
      "amar": 2762,
      "new-": 2763,
      "evans": 2764,
      "188": 2765,
      "ustain": 2766,
      "commons": 2767,
      ".r.": 2768,
      "feng": 2769,
      "v4": 2770,
      "www.m.share": 2771,
      "ded": 2772,
      "-cz": 2773,
      "artic": 2774,
      "carter": 2775,
      "friend": 2776,
      "banner": 2777,
      "e5": 2778,
      "f5": 2779,
      "ved": 2780,
      "bog": 2781,
      "2010": 2782,
      "ai-": 2783,
      "suppli": 2784,
      "turner": 2785,
      "time": 2786,
      "c3": 2787,
      "c8": 2788,
      "gem": 2789,
      "kim": 2790,
      "uel": 2791,
      "ony": 2792,
      "goog": 2793,
      "festival": 2794,
      "b4": 2795,
      "cir": 2796,
      "gent": 2797,
      "hone": 2798,
      "eland": 2799,
      "idu": 2800,
      "m.persian": 2801,
      "185": 2802,
      "living": 2803,
      "culator": 2804,
      "engineering": 2805,
      "credit": 2806,
      "inform": 2807,
      "or-": 2808,
      "ays": 2809,
      "m.polish": 2810,
      "173": 2811,
      "internal": 2812,
      "roberts": 2813,
      "financial": 2814,
      "ped": 2815,
      "rp": 2816,
      "slo": 2817,
      "tes": 2818,
      "w3": 2819,
      "eno": 2820,
      "mod": 2821,
      "ola": 2822,
      "tok": 2823,
      "libproxy": 2824,
      "campbell": 2825,
      "watson": 2826,
      "bak": 2827,
      "dental": 2828,
      "f1": 2829,
      "204": 2830,
      "dot": 2831,
      "hugh": 2832,
      "mann": 2833,
      "indian": 2834,
      "template": 2835,
      "-e": 2836,
      "jf": 2837,
      "kp": 2838,
      "with": 2839,
      "onic": 2840,
      "agon": 2841,
      "come": 2842,
      "teach": 2843,
      "iki": 2844,
      "-pub": 2845,
      "fish": 2846,
      "encia": 2847,
      "xxx": 2848,
      "offers": 2849,
      "walker": 2850,
      "core": 2851,
      "icy": 2852,
      "plac": 2853,
      "extranet": 2854,
      "avis": 2855,
      "alleng": 2856,
      ".uk": 2857,
      ".net": 2858,
      "b0": 2859,
      "yst": 2860,
      "ww2": 2861,
      "000": 2862,
      "of-": 2863,
      "yout": 2864,
      "config": 2865,
      "d4": 2866,
      "jas": 2867,
      "z2": 2868,
      "eria": 2869,
      "church": 2870,
      "ortg": 2871,
      "touch": 2872,
      "m.thai": 2873,
      "101": 2874,
      "louis": 2875,
      "bla": 2876,
      "f3": 2877,
      "jh": 2878,
      "just": 2879,
      "lass": 2880,
      "mun": 2881,
      "pap": 2882,
      "uh": 2883,
      "ystem": 2884,
      "zq": 2885,
      "www.en": 2886,
      "ledge": 2887,
      "mass": 2888,
      "nr": 2889,
      "tab": 2890,
      "liot": 2891,
      "img1": 2892,
      "internet": 2893,
      "academ": 2894,
      ".q": 2895,
      "337": 2896,
      "rum": 2897,
      "www.cs": 2898,
      "coast": 2899,
      "-car": 2900,
      "la-": 2901,
      "zheng": 2902,
      "ribe": 2903,
      "patel": 2904,
      "affiliate": 2905,
      "hughes": 2906,
      "f7": 2907,
      "pw": 2908,
      "rand": 2909,
      "amb": 2910,
      "amo": 2911,
      "sos": 2912,
      "graf": 2913,
      "merch": 2914,
      "iye": 2915,
      "kor": 2916,
      "tit": 2917,
      "yr": 2918,
      "elo": 2919,
      "illi": 2920,
      "clerk": 2921,
      "resid": 2922,
      "action": 2923,
      ".blogs": 2924,
      "ges": 2925,
      "hed": 2926,
      "lay": 2927,
      "miss": 2928,
      "p2": 2929,
      "rm": 2930,
      "www.fr": 2931,
      "motor": 2932,
      "grup": 2933,
      "identity": 2934,
      "-demo": 2935,
      "dic": 2936,
      "xj": 2937,
      "ims": 2938,
      "ski": 2939,
      "works": 2940,
      "d8": 2941,
      "nort": 2942,
      "omo": 2943,
      "ush": 2944,
      "vu": 2945,
      "ated": 2946,
      "icon": 2947,
      "astro": 2948,
      "insight": 2949,
      "control": 2950,
      "e4": 2951,
      "fal": 2952,
      "gets": 2953,
      "put": 2954,
      "ran": 2955,
      "rus": 2956,
      "sli": 2957,
      "yj": 2958,
      "elf": 2959,
      "bour": 2960,
      "wrigh": 2961,
      "enda": 2962,
      "dog": 2963,
      "qual": 2964,
      "thompson": 2965,
      ".linux": 2966,
      "d7": 2967,
      "fq": 2968,
      "hav": 2969,
      "sop": 2970,
      "vt": 2971,
      "vet": 2972,
      "zt": 2973,
      "eso": 2974,
      "vig": 2975,
      "2011": 2976,
      "sey": 2977,
      "aust": 2978,
      "-park": 2979,
      "php": 2980,
      "stores": 2981,
      "ursing": 2982,
      "offic": 2983,
      "talent": 2984,
      "admission": 2985,
      "harrison": 2986,
      ".pro": 2987,
      "b3": 2988,
      "c6": 2989,
      "cell": 2990,
      "nav": 2991,
      "sig": 2992,
      "imo": 2993,
      "to-": 2994,
      "ension": 2995,
      "player": 2996,
      "solar": 2997,
      ".events": 2998,
      "b6": 2999,
      "bes": 3000,
      "d5": 3001,
      "fn": 3002,
      "fel": 3003,
      "hir": 3004,
      "villa": 3005,
      "www.e": 3006,
      "degre": 3007,
      "leo": 3008,
      "domain": 3009,
      "launch": 3010,
      "aki": 3011,
      "exchange": 3012,
      "week": 3013,
      "blackboard": 3014,
      "b7": 3015,
      "f8": 3016,
      "fol": 3017,
      "garden": 3018,
      "jer": 3019,
      "mill": 3020,
      "tle": 3021,
      "yx": 3022,
      "www.app": 3023,
      "state": 3024,
      "heim": 3025,
      "manual": 3026,
      "publish": 3027,
      "clean": 3028,
      "-al": 3029,
      "e8": 3030,
      "f6": 3031,
      "gif": 3032,
      "rh": 3033,
      "coin": 3034,
      "tom": 3035,
      "assist": 3036,
      "174": 3037,
      "scre": 3038,
      "vej": 3039,
      "autom": 3040,
      "ulture": 3041,
      "-com.ezproxy": 3042,
      "special": 3043,
      ".a": 3044,
      "mq": 3045,
      "oce": 3046,
      "var": 3047,
      "enz": 3048,
      "apt": 3049,
      "shandong": 3050,
      "mos": 3051,
      "ops": 3052,
      "abo": 3053,
      "door": 3054,
      "sof": 3055,
      "-school": 3056,
      "105": 3057,
      "-part": 3058,
      "wilso": 3059,
      ".st": 3060,
      "b9": 3061,
      "happ": 3062,
      "jew": 3063,
      "rx": 3064,
      "vy": 3065,
      "ular": 3066,
      "fox": 3067,
      "tax": 3068,
      "lists": 3069,
      "audio": 3070,
      "ebscohost.com.": 3071,
      "mur": 3072,
      "sustain": 3073,
      "liber": 3074,
      "usd": 3075,
      "boot": 3076,
      "ers-": 3077,
      "ange": 3078,
      "frank": 3079,
      "sexy": 3080,
      "179": 3081,
      "-west": 3082,
      "gzs": 3083,
      "irect": 3084,
      "patient": 3085,
      "manager": 3086,
      "gateway": 3087,
      "fk": 3088,
      "gon": 3089,
      "hw": 3090,
      "enrose": 3091,
      "thew": 3092,
      "model": 3093,
      "trend": 3094,
      "shopping": 3095,
      ".sandbox": 3096,
      "source": 3097,
      "advisor": 3098,
      "ced": 3099,
      "e7": 3100,
      "heng": 3101,
      "mex": 3102,
      "www.ch": 3103,
      "ross": 3104,
      "isk": 3105,
      "union": 3106,
      "akt": 3107,
      "rix": 3108,
      "ugh": 3109,
      "-tw": 3110,
      "gradu": 3111,
      "texas": 3112,
      "dream": 3113,
      "jv": 3114,
      "uu": 3115,
      "hold": 3116,
      "ebr": 3117,
      "viag": 3118,
      "joy": 3119,
      "install": 3120,
      "golfclassic": 3121,
      "impact": 3122,
      "jalenrose": 3123,
      "jalenrosegolfclassic": 3124,
      "-9": 3125,
      "789": 3126,
      "e9": 3127,
      "fen": 3128,
      "kul": 3129,
      "mary": 3130,
      "p3": 3131,
      "ves": 3132,
      "ature": 3133,
      "www.x": 3134,
      "repair": 3135,
      "lem": 3136,
      "ema": 3137,
      "toto": 3138,
      "myaccount": 3139,
      "heart": 3140,
      "awards": 3141,
      "srv": 3142,
      "game-": 3143,
      "hostel": 3144,
      ".na1": 3145,
      "-static": 3146,
      "e1": 3147,
      "yog": 3148,
      "ingen": 3149,
      "plant": 3150,
      "station": 3151,
      "cdn3": 3152,
      "eval": 3153,
      "quick": 3154,
      "istry": 3155,
      "-pre": 3156,
      "georg": 3157,
      "stories": 3158,
      "capital": 3159,
      "templat": 3160,
      "physics": 3161,
      "bq": 3162,
      "jg": 3163,
      "sin": 3164,
      "one-": 3165,
      "eta": 3166,
      "entre": 3167,
      "updat": 3168,
      "guan": 3169,
      "ipp": 3170,
      "riere": 3171,
      "africa": 3172,
      "document": 3173,
      "-br": 3174,
      "d.": 3175,
      "fall": 3176,
      "zl": 3177,
      "cha": 3178,
      "iao": 3179,
      "scribe": 3180,
      "158": 3181,
      "666": 3182,
      "-tx": 3183,
      "henan": 3184,
      "jalenrosegolfclassic.com": 3185,
      "-app": 3186,
      "b.": 3187,
      "c0": 3188,
      "fab": 3189,
      "s4": 3190,
      "yong": 3191,
      "plaz": 3192,
      "ticket": 3193,
      "comput": 3194,
      "wangzhan": 3195,
      "australia": 3196,
      "museum": 3197,
      "ood": 3198,
      "vl": 3199,
      "orp": 3200,
      "stand": 3201,
      "www.a": 3202,
      "apr": 3203,
      "reat": 3204,
      "sea": 3205,
      "aver": 3206,
      "cache": 3207,
      "baidu": 3208,
      "backend": 3209,
      "org.ezproxy": 3210,
      "c7": 3211,
      "f9": 3212,
      "qk": 3213,
      "river": 3214,
      "ella": 3215,
      "itch": 3216,
      "asa": 3217,
      "irl": 3218,
      "pok": 3219,
      "eva": 3220,
      "termin": 3221,
      "country": 3222,
      "wellness": 3223,
      "clo": 3224,
      "td": 3225,
      "vx": 3226,
      "inside": 3227,
      "stone": 3228,
      "ebet": 3229,
      "abad": 3230,
      "img2": 3231,
      "canada": 3232,
      "explorer": 3233,
      "football": 3234,
      "innovation": 3235,
      "davies": 3236,
      "i2": 3237,
      "qw": 3238,
      "tang": 3239,
      "ya-": 3240,
      "zk": 3241,
      "zone": 3242,
      "ani": 3243,
      "eshop": 3244,
      "ale-": 3245,
      "atar": 3246,
      "apple": 3247,
      "laur": 3248,
      "tern": 3249,
      "hero": 3250,
      "jiangsu": 3251,
      "photography": 3252,
      "realestate": 3253,
      "summit": 3254,
      "zhuang": 3255,
      "machine": 3256,
      "associ": 3257,
      "google": 3258,
      "cin": 3259,
      "flash": 3260,
      "less": 3261,
      "mj": 3262,
      "yk": 3263,
      "st-": 3264,
      "shin": 3265,
      "isd": 3266,
      "ump": 3267,
      "congr": 3268,
      "eve": 3269,
      "ible": 3270,
      "-market": 3271,
      "-dr": 3272,
      "ennis": 3273,
      "future": 3274,
      "-8": 3275,
      "520": 3276,
      "d6": 3277,
      "tions": 3278,
      "edwards": 3279,
      "ebe": 3280,
      "komm": 3281,
      "windo": 3282,
      "affic": 3283,
      "premium": 3284,
      "builder": 3285,
      "mess": 3286,
      "vm": 3287,
      "wt": 3288,
      "cot": 3289,
      "liao": 3290,
      "estud": 3291,
      "cept": 3292,
      "writ": 3293,
      "knowledge": 3294,
      "base": 3295,
      "mig": 3296,
      "rit": 3297,
      "sus": 3298,
      "tak": 3299,
      "www.re": 3300,
      "franc": 3301,
      "tos": 3302,
      "ally": 3303,
      "whit": 3304,
      "asket": 3305,
      "theme": 3306,
      "profess": 3307,
      "album": 3308,
      "dist": 3309,
      "lum": 3310,
      "path": 3311,
      "ql": 3312,
      "intel": 3313,
      "itu": 3314,
      "reports": 3315,
      "igital": 3316,
      "kool": 3317,
      "html": 3318,
      "film": 3319,
      "paul": 3320,
      "freder": 3321,
      "phoenix": 3322,
      "llc": 3323,
      "classifi": 3324,
      "therap": 3325,
      "cus": 3326,
      "fro": 3327,
      "insp": 3328,
      "colo": 3329,
      "iot": 3330,
      "exp": 3331,
      "347": 3332,
      "wild": 3333,
      "cms-": 3334,
      "technology": 3335,
      "113": 3336,
      "hib": 3337,
      "pix": 3338,
      "sac": 3339,
      "suc": 3340,
      "channel": 3341,
      "challeng": 3342,
      "ing.": 3343,
      "ava": 3344,
      "collection": 3345,
      "-7": 3346,
      "eag": 3347,
      "gay": 3348,
      "xl": 3349,
      "adr": 3350,
      "isa": 3351,
      "uni": 3352,
      "trip": 3353,
      "205": 3354,
      "-cont": 3355,
      "-club": 3356,
      "constru": 3357,
      "izon": 3358,
      "159": 3359,
      "04.na1": 3360,
      "region": 3361,
      "ffice": 3362,
      "d9": 3363,
      "div": 3364,
      "fur": 3365,
      "lus": 3366,
      "nv": 3367,
      "www.web": 3368,
      "chao": 3369,
      "eman": 3370,
      "uto": 3371,
      "eweb": 3372,
      "doi-": 3373,
      "ome": 3374,
      "feeds": 3375,
      "reviews": 3376,
      "experience": 3377,
      "gest": 3378,
      "h-": 3379,
      "h2": 3380,
      "ost": 3381,
      "cost": 3382,
      "inger": 3383,
      "ados": 3384,
      "usic": 3385,
      "-cup": 3386,
      "143": 3387,
      "sichuan": 3388,
      "monitor": 3389,
      "restaurant": 3390,
      "caf": 3391,
      "gate": 3392,
      "qn": 3393,
      "tig": 3394,
      "www4": 3395,
      "www.y": 3396,
      "ela": 3397,
      "ely": 3398,
      "chester": 3399,
      "adfs": 3400,
      "usion": 3401,
      "trail": 3402,
      "plug": 3403,
      "ume": 3404,
      "web.": 3405,
      "note": 3406,
      "140": 3407,
      "contin": 3408,
      "ideas": 3409,
      "payment": 3410,
      "-a": 3411,
      "c9": 3412,
      "f.": 3413,
      "oli": 3414,
      "sab": 3415,
      "ess-": 3416,
      "alon": 3417,
      "www.us": 3418,
      "rev": 3419,
      "css": 3420,
      "-sch": 3421,
      "personal": 3422,
      "mountain": 3423,
      "hay": 3424,
      "mcp": 3425,
      "nak": 3426,
      "qian": 3427,
      "yer": 3428,
      "dep": 3429,
      "history": 3430,
      "industr": 3431,
      "sustainability": 3432,
      ".z": 3433,
      "xe": 3434,
      "orio": 3435,
      "amber": 3436,
      "thec": 3437,
      "tram": 3438,
      "france": 3439,
      "spark": 3440,
      "106": 3441,
      ".cc": 3442,
      "demo-": 3443,
      "-dk": 3444,
      "hao": 3445,
      "author": 3446,
      "celcom": 3447,
      "subscribe": 3448,
      "primary": 3449,
      "cru": 3450,
      "gil": 3451,
      "kay": 3452,
      "mik": 3453,
      "vest": 3454,
      "apro": 3455,
      "liang": 3456,
      "agents": 3457,
      "houst": 3458,
      "thet": 3459,
      "eme": 3460,
      "plast": 3461,
      "app-": 3462,
      "betgirisicom": 3463,
      "180": 3464,
      "ize": 3465,
      "neuro": 3466,
      "ife": 3467,
      "tele": 3468,
      "cyber": 3469,
      "vern": 3470,
      "ector": 3471,
      "catalo": 3472,
      "mix": 3473,
      "juli": 3474,
      "chicago": 3475,
      ".apps": 3476,
      "cis": 3477,
      "dol": 3478,
      "jar": 3479,
      "kg": 3480,
      "more": 3481,
      "tin": 3482,
      "www.q": 3483,
      "estore": 3484,
      "sound": 3485,
      "brain": 3486,
      "prest": 3487,
      "-site": 3488,
      "jose": 3489,
      "126": 3490,
      "-mar": 3491,
      "gaming": 3492,
      "metro": 3493,
      "guangdong": 3494,
      "120": 3495,
      "call": 3496,
      "gift": 3497,
      "lon": 3498,
      "m2": 3499,
      "rat": 3500,
      "enroll": 3501,
      "stay": 3502,
      "aman": 3503,
      "add": 3504,
      "olution": 3505,
      "tou": 3506,
      "uda": 3507,
      "dev-": 3508,
      "bei": 3509,
      "images.": 3510,
      "meme104": 3511,
      "locksmith-": 3512,
      "ilo": 3513,
      "kf": 3514,
      "nar": 3515,
      "atlas": 3516,
      "leb": 3517,
      "109": 3518,
      "dev.": 3519,
      "phone": 3520,
      "smtp": 3521,
      "xn-": 3522,
      "retail": 3523,
      "dian": 3524,
      "dub": 3525,
      "pb": 3526,
      "rim": 3527,
      "sale": 3528,
      "eres": 3529,
      "aries": 3530,
      "oria": 3531,
      "amaz": 3532,
      "urator": 3533,
      "thel": 3534,
      "webshop": 3535,
      "spin": 3536,
      "brary": 3537,
      "aux": 3538,
      "-pol": 3539,
      ".cms": 3540,
      "annual": 3541,
      "advent": 3542,
      "cross": 3543,
      "ry-": 3544,
      "vp": 3545,
      "vend": 3546,
      "onn": 3547,
      "onto": 3548,
      "chan": 3549,
      "adult": 3550,
      "ecenter": 3551,
      "traffic": 3552,
      "108": 3553,
      "guard": 3554,
      "allas": 3555,
      "bert": 3556,
      "cryp": 3557,
      "voice": 3558,
      "application": 3559,
      "bibliot": 3560,
      "apartment": 3561,
      "fli": 3562,
      "pdf": 3563,
      "wj": 3564,
      "aba": 3565,
      "node": 3566,
      "-preview": 3567,
      "athon": 3568,
      "lyn": 3569,
      "gaard": 3570,
      "polit": 3571,
      "cion": 3572,
      "eq": 3573,
      "lag": 3574,
      "ters": 3575,
      "www.www.share": 3576,
      "itter": 3577,
      "edo": 3578,
      "planet": 3579,
      "spac": 3580,
      "clar": 3581,
      "137": 3582,
      ".server": 3583,
      "002": 3584,
      "craft": 3585,
      "fitness": 3586,
      "-ar": 3587,
      "dspace": 3588,
      "gf": 3589,
      "mortg": 3590,
      "nel": 3591,
      "qin": 3592,
      "sell": 3593,
      "uj": 3594,
      "wf": 3595,
      "ants": 3596,
      "vik": 3597,
      "vider": 3598,
      "pract": 3599,
      "workshop": 3600,
      "attle": 3601,
      "remote": 3602,
      "classifieds": 3603,
      ".admin": 3604,
      "aal": 3605,
      "ein": 3606,
      "iko": 3607,
      "l-": 3608,
      "london": 3609,
      "pag": 3610,
      "tol": 3611,
      "www.st": 3612,
      "rot": 3613,
      "lean": 3614,
      "ples": 3615,
      "-camp": 3616,
      "-center": 3617,
      "cpanel": 3618,
      "here": 3619,
      "recip": 3620,
      "women": 3621,
      ".in": 3622,
      ".edu": 3623,
      "dun": 3624,
      "kx": 3625,
      "arth": 3626,
      "bow": 3627,
      "bras": 3628,
      "api2": 3629,
      "ota": 3630,
      "great": 3631,
      "gov.cn": 3632,
      "hit": 3633,
      "has": 3634,
      "kum": 3635,
      "send": 3636,
      "yle": 3637,
      "zg": 3638,
      "aris": 3639,
      "short": 3640,
      "ilin": 3641,
      "asin": 3642,
      "una": 3643,
      "eden": 3644,
      "ece": 3645,
      "plum": 3646,
      "see": 3647,
      "-ct": 3648,
      "prin": 3649,
      "newsroom": 3650,
      "resource": 3651,
      "journals": 3652,
      "block": 3653,
      "kol": 3654,
      "kids": 3655,
      "lac": 3656,
      "luck": 3657,
      "vor": 3658,
      "vit": 3659,
      "wir": 3660,
      "yg": 3661,
      "chart": 3662,
      "doma": 3663,
      "1000": 3664,
      "ainan": 3665,
      "ctor": 3666,
      "diy": 3667,
      "carol": 3668,
      "store-": 3669,
      "strate": 3670,
      "docs-": 3671,
      "housing": 3672,
      "leader": 3673,
      "stadt": 3674,
      "official": 3675,
      "cet": 3676,
      "e6": 3677,
      "gul": 3678,
      "sms": 3679,
      "z-": 3680,
      "anth": 3681,
      "chain": 3682,
      "champ": 3683,
      "aso": 3684,
      "lion": 3685,
      "us.": 3686,
      "momo": 3687,
      "forest": 3688,
      "quot": 3689,
      "healthcare": 3690,
      "text": 3691,
      "pharmacy": 3692,
      "-staging": 3693,
      ".se": 3694,
      "pes": 3695,
      "song": 3696,
      "zc": 3697,
      "lots": 3698,
      "ree": 3699,
      "covid": 3700,
      "aga": 3701,
      "heat": 3702,
      "148": 3703,
      "active": 3704,
      "labor": 3705,
      "summer": 3706,
      "reservations": 3707,
      "orientation": 3708,
      "flex": 3709,
      "iro": 3710,
      "kid": 3711,
      "lh": 3712,
      "lap": 3713,
      "p1": 3714,
      "ras": 3715,
      "tas": 3716,
      "zr": 3717,
      "ares": 3718,
      "moon": 3719,
      "-su": 3720,
      "assess": 3721,
      "1688": 3722,
      "ancer": 3723,
      "klub": 3724,
      "jeff": 3725,
      "schools": 3726,
      "-service": 3727,
      "finder": 3728,
      "-eu": 3729,
      "hul": 3730,
      "jb": 3731,
      "jm": 3732,
      "jon": 3733,
      "nursing": 3734,
      "p.": 3735,
      "xg": 3736,
      "aria": 3737,
      "elog": 3738,
      "shao": 3739,
      "coffe": 3740,
      "amat": 3741,
      "ada-": 3742,
      "domin": 3743,
      "webapp": 3744,
      "-cam": 3745,
      "-cloud": 3746,
      "107": 3747,
      "125": 3748,
      "izza": 3749,
      "berlin": 3750,
      "common": 3751,
      "jiu": 3752,
      "emplo": 3753,
      "paris": 3754,
      "programs": 3755,
      "assets-": 3756,
      "clinic": 3757,
      "-ro": 3758,
      "4.": 3759,
      "hat": 3760,
      "kong": 3761,
      "pel": 3762,
      "qv": 3763,
      "uen": 3764,
      "www.al": 3765,
      "deal": 3766,
      "hof": 3767,
      "aio": 3768,
      "175": 3769,
      "medias": 3770,
      "matomo": 3771,
      "stein": 3772,
      "michael": 3773,
      "medicine": 3774,
      "sitemap": 3775,
      "-assets": 3776,
      "335": 3777,
      "kas": 3778,
      "m3": 3779,
      "pil": 3780,
      "rio": 3781,
      "tum": 3782,
      "chap": 3783,
      "shir": 3784,
      "ases": 3785,
      "ague": 3786,
      "profile": 3787,
      "ults": 3788,
      "222": 3789,
      "luo": 3790,
      "aciones": 3791,
      "golden": 3792,
      "christian": 3793,
      "updates": 3794,
      "-st": 3795,
      "4-": 3796,
      "pf": 3797,
      "qt": 3798,
      "rant": 3799,
      "ule": 3800,
      "erne": 3801,
      "isco": 3802,
      "abe": 3803,
      "abs": 3804,
      "frame": 3805,
      "toy": 3806,
      "my-": 3807,
      "-sports": 3808,
      "auction": 3809,
      "003": 3810,
      "studies": 3811,
      "ances": 3812,
      "property": 3813,
      "enterprise": 3814,
      "223": 3815,
      "fa-": 3816,
      "mam": 3817,
      "pip": 3818,
      "r2": 3819,
      "zer": 3820,
      "ante": 3821,
      "ono": 3822,
      "www.uk": 3823,
      "asian": 3824,
      "iso": 3825,
      "ecure": 3826,
      "webinar": 3827,
      "pton": 3828,
      "165": 3829,
      "away": 3830,
      "zh-tw": 3831,
      "150": 3832,
      "mond": 3833,
      "calculator": 3834,
      "mobile.": 3835,
      "tienda": 3836,
      "movies": 3837,
      "-lo": 3838,
      ".live": 3839,
      "aer": 3840,
      "fant": 3841,
      "hf": 3842,
      "kre": 3843,
      "m1": 3844,
      "nas": 3845,
      "qd": 3846,
      "rk": 3847,
      "sund": 3848,
      "tf": 3849,
      "xw": 3850,
      "zhe": 3851,
      "arc": 3852,
      "www.in": 3853,
      "shot": 3854,
      "def": 3855,
      "liu": 3856,
      "thail": 3857,
      "socc": 3858,
      "last": 3859,
      "exec": 3860,
      "jour": 3861,
      "skolen": 3862,
      "meg": 3863,
      "227": 3864,
      "payments": 3865,
      "passport": 3866,
      "mirror": 3867,
      ".mail": 3868,
      "aas": 3869,
      "bec": 3870,
      "g2": 3871,
      "iet": 3872,
      "jim": 3873,
      "jay": 3874,
      "lj": 3875,
      "mang": 3876,
      "rn": 3877,
      "y.": 3878,
      "www.es": 3879,
      "edin": 3880,
      "blog.": 3881,
      "bright": 3882,
      "gray": 3883,
      "izer": 3884,
      "reset": 3885,
      "zh-cn": 3886,
      "img3": 3887,
      "colleg": 3888,
      "303": 3889,
      "salon": 3890,
      "guangzhou": 3891,
      "houston": 3892,
      "114": 3893,
      "ius": 3894,
      "num": 3895,
      "tic": 3896,
      "xo": 3897,
      "zp": 3898,
      "ende": 3899,
      "revist": 3900,
      "shun": 3901,
      "coup": 3902,
      "urban": 3903,
      "gue": 3904,
      ".care": 3905,
      "libanswers": 3906,
      "nutr": 3907,
      "commercial": 3908,
      "virgin": 3909,
      "gio": 3910,
      "pick": 3911,
      "t.": 3912,
      "tb": 3913,
      "yd": 3914,
      "zn": 3915,
      "sta": 3916,
      "abc": 3917,
      "2007": 3918,
      "foren": 3919,
      "evo": 3920,
      "cade": 3921,
      "130": 3922,
      "resp": 3923,
      "fei": 3924,
      "casino-": 3925,
      "tracker": 3926,
      "welcome": 3927,
      "human": 3928,
      "olymp": 3929,
      "lk": 3930,
      "mand": 3931,
      "meld": 3932,
      "vil": 3933,
      "x4": 3934,
      "orte": 3935,
      "aker": 3936,
      "betting": 3937,
      "wealth": 3938,
      "ltd": 3939,
      "porn": 3940,
      "coaching": 3941,
      "washington": 3942,
      "bian": 3943,
      "baz": 3944,
      "qc": 3945,
      "qiye": 3946,
      "fresh": 3947,
      "brit": 3948,
      "grat": 3949,
      "istics": 3950,
      "-pal": 3951,
      "mine": 3952,
      "mini": 3953,
      "-group": 3954,
      "2126": 3955,
      "creek": 3956,
      "biblioteca": 3957,
      "fig": 3958,
      "night": 3959,
      "won": 3960,
      "estr": 3961,
      "stev": 3962,
      "acor": 3963,
      "ecu": 3964,
      "provider": 3965,
      "boston": 3966,
      "201": 3967,
      "2009": 3968,
      "akes": 3969,
      ".custom": 3970,
      "shanxi": 3971,
      "press-": 3972,
      "gitlab": 3973,
      "notes": 3974,
      "united": 3975,
      "alpha": 3976,
      "-portal": 3977,
      "bau": 3978,
      "iu": 3979,
      "jie": 3980,
      "lw": 3981,
      "s5": 3982,
      "sent": 3983,
      "eler": 3984,
      "cht": 3985,
      "roman": 3986,
      "sheng": 3987,
      "-cal": 3988,
      "195": 3989,
      "198": 3990,
      "ateur": 3991,
      "ief": 3992,
      "docs.": 3993,
      "xn---": 3994,
      "discord": 3995,
      "edule": 3996,
      "holm": 3997,
      "karriere": 3998,
      "advanc": 3999,
      "-public": 4000,
      "gard": 4001,
      "ois": 4002,
      "rup": 4003,
      "rick": 4004,
      "ses": 4005,
      "sak": 4006,
      "tutor": 4007,
      "wit": 4008,
      "x.": 4009,
      "yh": 4010,
      "sted": 4011,
      "trib": 4012,
      "make": 4013,
      "webapps": 4014,
      "-cms": 4015,
      "ansas": 4016,
      "parts": 4017,
      "iya": 4018,
      "-casino-": 4019,
      "servicios": 4020,
      "tianjin": 4021,
      "american": 4022,
      "victor": 4023,
      "thailand": 4024,
      "ca-": 4025,
      "d0": 4026,
      "pun": 4027,
      "pain": 4028,
      "q5": 4029,
      "rub": 4030,
      "ral-": 4031,
      "round": 4032,
      "adver": 4033,
      "-can": 4034,
      "103": 4035,
      ".c1": 4036,
      "135": 4037,
      "139": 4038,
      "145": 4039,
      "energ": 4040,
      "zuo": 4041,
      "charlot": 4042,
      "consulting": 4043,
      "crypto": 4044,
      "-le": 4045,
      "a27": 4046,
      "bann": 4047,
      "hart": 4048,
      "vk": 4049,
      "sts": 4050,
      "atur": 4051,
      "elek": 4052,
      "ream": 4053,
      "rov": 4054,
      "206": 4055,
      "contest": 4056,
      "bets": 4057,
      "bean": 4058,
      "testnet": 4059,
      "case": 4060,
      ".wholesale": 4061,
      "clarke": 4062,
      "william": 4063,
      "bik": 4064,
      "cann": 4065,
      "lr": 4066,
      "nit": 4067,
      "rz": 4068,
      "rak": 4069,
      "rele": 4070,
      "sor": 4071,
      "ina-": 4072,
      "aring": 4073,
      "cop": 4074,
      "ades": 4075,
      "uno": 4076,
      "moder": 4077,
      "maj": 4078,
      "127": 4079,
      "ter-": 4080,
      "crip": 4081,
      "syn": 4082,
      "555": 4083,
      "mater": 4084,
      "mp3": 4085,
      "court": 4086,
      "widgets": 4087,
      "frontend": 4088,
      "hebei": 4089,
      "institute": 4090,
      "beck": 4091,
      "cio": 4092,
      "g1": 4093,
      "kli": 4094,
      "nia": 4095
    },
    "merges": [
      [
        "w",
        "w"
      ],
      [
        "i",
        "n"
      ],
      [
        "e",
        "r"
      ],
      [
        "a",
        "n"
      ],
      [
        "e",
        "s"
      ],
      [
        "a",
        "r"
      ],
      [
        "e",
        "n"
      ],
      [
        "o",
        "r"
      ],
      [
        "o",
        "n"
      ],
      [
        "a",
        "l"
      ],
      [
        "s",
        "t"
      ],
      [
        "ww",
        "w"
      ],
      [
        "a",
        "t"
      ],
      [
        "www",
        "."
      ],
      [
        "e",
        "l"
      ],
      [
        "i",
        "t"
      ],
      [
        "c",
        "h"
      ],
      [
        "e",
        "t"
      ],
      [
        "i",
        "c"
      ],
      [
        "a",
        "p"
      ],
      [
        "l",
        "o"
      ],
      [
        "r",
        "e"
      ],
      [
        "r",
        "o"
      ],
      [
        "s",
        "h"
      ],
      [
        "d",
        "e"
      ],
      [
        "c",
        "o"
      ],
      [
        "i",
        "l"
      ],
      [
        "in",
        "g"
      ],
      [
        "a",
        "s"
      ],
      [
        "a",
        "m"
      ],
      [
        "a",
        "c"
      ],
      [
        "a",
        "d"
      ],
      [
        "l",
        "i"
      ],
      [
        "a",
        "g"
      ],
      [
        "u",
        "s"
      ],
      [
        "i",
        "s"
      ],
      [
        "u",
        "r"
      ],
      [
        "l",
        "e"
      ],
      [
        "en",
        "t"
      ],
      [
        "u",
        "n"
      ],
      [
        "h",
        "o"
      ],
      [
        "e",
        "d"
      ],
      [
        "or",
        "t"
      ],
      [
        "e",
        "b"
      ],
      [
        "t",
        "h"
      ],
      [
        "i",
        "m"
      ],
      [
        "i",
        "on"
      ],
      [
        "m",
        "o"
      ],
      [
        "lo",
        "g"
      ],
      [
        "e",
        "-"
      ],
      [
        "o",
        "p"
      ],
      [
        "o",
        "l"
      ],
      [
        "e",
        "c"
      ],
      [
        "e",
        "m"
      ],
      [
        "v",
        "i"
      ],
      [
        "p",
        "ort"
      ],
      [
        "t",
        "r"
      ],
      [
        "u",
        "t"
      ],
      [
        "a",
        "b"
      ],
      [
        "p",
        "l"
      ],
      [
        "es",
        "t"
      ],
      [
        "i",
        "d"
      ],
      [
        "p",
        "ro"
      ],
      [
        "an",
        "d"
      ],
      [
        "b",
        "o"
      ],
      [
        "er",
        "s"
      ],
      [
        "u",
        "p"
      ],
      [
        "i",
        "g"
      ],
      [
        "2",
        "0"
      ],
      [
        "u",
        "m"
      ],
      [
        "e",
        "w"
      ],
      [
        "d",
        "o"
      ],
      [
        "co",
        "m"
      ],
      [
        "i",
        "a"
      ],
      [
        "an",
        "g"
      ],
      [
        "a",
        "y"
      ],
      [
        "b",
        "log"
      ],
      [
        "i",
        "r"
      ],
      [
        "ap",
        "p"
      ],
      [
        "m",
        "a"
      ],
      [
        "f",
        "r"
      ],
      [
        "t",
        "o"
      ],
      [
        "w",
        "eb"
      ],
      [
        "s",
        "e"
      ],
      [
        "s",
        "p"
      ],
      [
        "m",
        "y"
      ],
      [
        "-",
        "c"
      ],
      [
        "d",
        "n"
      ],
      [
        "i",
        "an"
      ],
      [
        "l",
        "in"
      ],
      [
        "m",
        "."
      ],
      [
        "i",
        "v"
      ],
      [
        "ar",
        "t"
      ],
      [
        "f",
        "or"
      ],
      [
        "u",
        "l"
      ],
      [
        "ar",
        "e"
      ],
      [
        "s",
        "o"
      ],
      [
        "u",
        "d"
      ],
      [
        "b",
        "r"
      ],
      [
        "u",
        "b"
      ],
      [
        "l",
        "a"
      ],
      [
        "s",
        "-"
      ],
      [
        "t",
        "e"
      ],
      [
        "p",
        "o"
      ],
      [
        "a",
        "i"
      ],
      [
        "k",
        "o"
      ],
      [
        "p",
        "r"
      ],
      [
        "c",
        "on"
      ],
      [
        "c",
        "s"
      ],
      [
        "g",
        "o"
      ],
      [
        "g",
        "r"
      ],
      [
        "n",
        "o"
      ],
      [
        "st",
        "at"
      ],
      [
        "c",
        "dn"
      ],
      [
        "-",
        "s"
      ],
      [
        "1",
        "0"
      ],
      [
        "a",
        "k"
      ],
      [
        "i",
        "o"
      ],
      [
        "g",
        "u"
      ],
      [
        "e",
        "x"
      ],
      [
        "f",
        "o"
      ],
      [
        "a",
        "f"
      ],
      [
        "a",
        "-"
      ],
      [
        "sh",
        "op"
      ],
      [
        "i",
        "k"
      ],
      [
        "c",
        "e"
      ],
      [
        "or",
        "e"
      ],
      [
        "m",
        "s"
      ],
      [
        "b",
        "et"
      ],
      [
        "a",
        "v"
      ],
      [
        "o",
        "k"
      ],
      [
        "n",
        "ew"
      ],
      [
        "at",
        "ion"
      ],
      [
        "er",
        "v"
      ],
      [
        "as",
        "s"
      ],
      [
        "de",
        "v"
      ],
      [
        "e",
        "v"
      ],
      [
        "1",
        "7"
      ],
      [
        "q",
        "u"
      ],
      [
        "r",
        "u"
      ],
      [
        "j",
        "o"
      ],
      [
        "es",
        "s"
      ],
      [
        "ar",
        "d"
      ],
      [
        "s",
        "k"
      ],
      [
        "t",
        "s"
      ],
      [
        "1",
        "2"
      ],
      [
        "h",
        "e"
      ],
      [
        "s",
        "up"
      ],
      [
        "h",
        "u"
      ],
      [
        "o",
        "m"
      ],
      [
        "it",
        "y"
      ],
      [
        "i",
        "p"
      ],
      [
        "c",
        "l"
      ],
      [
        "o",
        "d"
      ],
      [
        "a",
        "u"
      ],
      [
        "b",
        "e"
      ],
      [
        "ap",
        "i"
      ],
      [
        "al",
        "l"
      ],
      [
        "h",
        "el"
      ],
      [
        "en",
        "g"
      ],
      [
        "t",
        "er"
      ],
      [
        "i",
        "st"
      ],
      [
        "ar",
        "k"
      ],
      [
        "m",
        "an"
      ],
      [
        "m",
        "e"
      ],
      [
        "m",
        "ed"
      ],
      [
        "c",
        "a"
      ],
      [
        "in",
        "d"
      ],
      [
        "p",
        "t"
      ],
      [
        "s",
        "c"
      ],
      [
        "-",
        "p"
      ],
      [
        "d",
        "a"
      ],
      [
        "f",
        "i"
      ],
      [
        "sup",
        "port"
      ],
      [
        "on",
        "g"
      ],
      [
        "es",
        "e"
      ],
      [
        "u",
        "c"
      ],
      [
        "1",
        "8"
      ],
      [
        "ag",
        "e"
      ],
      [
        "hel",
        "p"
      ],
      [
        "ac",
        "k"
      ],
      [
        "-",
        "-"
      ],
      [
        "u",
        "k"
      ],
      [
        "b",
        "s"
      ],
      [
        "pro",
        "d"
      ],
      [
        "port",
        "al"
      ],
      [
        "m",
        "in"
      ],
      [
        "e",
        "k"
      ],
      [
        ".",
        "c"
      ],
      [
        "a",
        "z"
      ],
      [
        "v",
        "e"
      ],
      [
        "1",
        "9"
      ],
      [
        "a",
        "in"
      ],
      [
        "i",
        "z"
      ],
      [
        "2",
        "4"
      ],
      [
        "o",
        "s"
      ],
      [
        "an",
        "t"
      ],
      [
        "ar",
        "y"
      ],
      [
        "w",
        "n"
      ],
      [
        "1",
        "3"
      ],
      [
        "h",
        "t"
      ],
      [
        "b",
        "a"
      ],
      [
        "o",
        "t"
      ],
      [
        "p",
        "h"
      ],
      [
        "1",
        "6"
      ],
      [
        ".",
        "s"
      ],
      [
        "8",
        "8"
      ],
      [
        "r",
        "es"
      ],
      [
        "n",
        "e"
      ],
      [
        "w",
        "or"
      ],
      [
        "o",
        "g"
      ],
      [
        "2",
        "3"
      ],
      [
        "0",
        "0"
      ],
      [
        "b",
        "er"
      ],
      [
        "a",
        "w"
      ],
      [
        "i",
        "f"
      ],
      [
        "at",
        "e"
      ],
      [
        "g",
        "e"
      ],
      [
        "i",
        "sh"
      ],
      [
        "t",
        "el"
      ],
      [
        "stat",
        "ic"
      ],
      [
        "y",
        "-"
      ],
      [
        "1",
        "4"
      ],
      [
        "z",
        "h"
      ],
      [
        "ent",
        "s"
      ],
      [
        "ar",
        "ch"
      ],
      [
        "il",
        "l"
      ],
      [
        "u",
        "re"
      ],
      [
        "f",
        "a"
      ],
      [
        "en",
        "d"
      ],
      [
        "2",
        "5"
      ],
      [
        "c",
        "c"
      ],
      [
        "s",
        "m"
      ],
      [
        "el",
        "l"
      ],
      [
        "t",
        "est"
      ],
      [
        "new",
        "s"
      ],
      [
        "am",
        "p"
      ],
      [
        "de",
        "mo"
      ],
      [
        "im",
        "g"
      ],
      [
        "1",
        "5"
      ],
      [
        "j",
        "a"
      ],
      [
        "et",
        "s"
      ],
      [
        "it",
        "al"
      ],
      [
        "x",
        "y"
      ],
      [
        "s",
        "erv"
      ],
      [
        "-",
        "b"
      ],
      [
        "c",
        "y"
      ],
      [
        "ma",
        "il"
      ],
      [
        "c",
        "t"
      ],
      [
        "i",
        "e"
      ],
      [
        "s",
        "s"
      ],
      [
        "n",
        "l"
      ],
      [
        "i",
        "b"
      ],
      [
        "v",
        "er"
      ],
      [
        "sh",
        "are"
      ],
      [
        "on",
        "lin"
      ],
      [
        "o",
        "f"
      ],
      [
        "ec",
        "t"
      ],
      [
        "do",
        "cs"
      ],
      [
        "-",
        "m"
      ],
      [
        "g",
        "re"
      ],
      [
        "e",
        "u"
      ],
      [
        "3",
        "6"
      ],
      [
        "u",
        "st"
      ],
      [
        "it",
        "e"
      ],
      [
        "in",
        "fo"
      ],
      [
        "s",
        "i"
      ],
      [
        "ic",
        "e"
      ],
      [
        "a",
        "st"
      ],
      [
        "c",
        "are"
      ],
      [
        "ag",
        "es"
      ],
      [
        "2",
        "6"
      ],
      [
        "c",
        "k"
      ],
      [
        "un",
        "d"
      ],
      [
        "com",
        "m"
      ],
      [
        "s",
        "r"
      ],
      [
        "y",
        "o"
      ],
      [
        "w",
        "ap"
      ],
      [
        "f",
        "il"
      ],
      [
        "co",
        "un"
      ],
      [
        "p",
        "s"
      ],
      [
        "-",
        "d"
      ],
      [
        "i",
        "al"
      ],
      [
        "bo",
        "ok"
      ],
      [
        "n",
        "et"
      ],
      [
        "k",
        "e"
      ],
      [
        "st",
        "ore"
      ],
      [
        "h",
        "r"
      ],
      [
        "7",
        "7"
      ],
      [
        "ic",
        "k"
      ],
      [
        "c",
        "r"
      ],
      [
        "l",
        "and"
      ],
      [
        "h",
        "a"
      ],
      [
        "2",
        "2"
      ],
      [
        "ic",
        "s"
      ],
      [
        "c",
        "at"
      ],
      [
        "s",
        "a"
      ],
      [
        "er",
        "-"
      ],
      [
        "t",
        "y"
      ],
      [
        "in",
        "o"
      ],
      [
        "or",
        "g"
      ],
      [
        "med",
        "ia"
      ],
      [
        "x",
        "n"
      ],
      [
        "b",
        "u"
      ],
      [
        "ho",
        "u"
      ],
      [
        "an",
        "s"
      ],
      [
        "w",
        "e"
      ],
      [
        "3",
        "4"
      ],
      [
        "i",
        "-"
      ],
      [
        "ar",
        "n"
      ],
      [
        "d",
        "r"
      ],
      [
        "li",
        "br"
      ],
      [
        "f",
        "e"
      ],
      [
        "in",
        "s"
      ],
      [
        "ho",
        "tel"
      ],
      [
        "an",
        "n"
      ],
      [
        "a",
        "ch"
      ],
      [
        "p",
        "e"
      ],
      [
        "ig",
        "n"
      ],
      [
        "for",
        "um"
      ],
      [
        "b",
        "l"
      ],
      [
        "in",
        "e"
      ],
      [
        "i",
        "es"
      ],
      [
        "st",
        "ag"
      ],
      [
        ".",
        "com"
      ],
      [
        "a",
        "de"
      ],
      [
        "li",
        "b"
      ],
      [
        "ac",
        "t"
      ],
      [
        "d",
        "es"
      ],
      [
        "f",
        "l"
      ],
      [
        "a",
        "il"
      ],
      [
        "y",
        "u"
      ],
      [
        "a",
        "h"
      ],
      [
        "libr",
        "ary"
      ],
      [
        "m",
        "on"
      ],
      [
        "9",
        "9"
      ],
      [
        "in",
        "t"
      ],
      [
        "s",
        "u"
      ],
      [
        "r",
        "i"
      ],
      [
        "s",
        "."
      ],
      [
        "s",
        "ch"
      ],
      [
        "2",
        "1"
      ],
      [
        "lo",
        "ud"
      ],
      [
        "g",
        "er"
      ],
      [
        "d",
        "i"
      ],
      [
        "b",
        "il"
      ],
      [
        "iv",
        "e"
      ],
      [
        "co",
        "l"
      ],
      [
        "m",
        "i"
      ],
      [
        "0",
        "1"
      ],
      [
        "ol",
        "d"
      ],
      [
        "vi",
        "ew"
      ],
      [
        "p",
        "er"
      ],
      [
        "d",
        "er"
      ],
      [
        "j",
        "i"
      ],
      [
        "onlin",
        "e"
      ],
      [
        "ad",
        "min"
      ],
      [
        "y",
        "s"
      ],
      [
        "vi",
        "de"
      ],
      [
        "-",
        "g"
      ],
      [
        "3",
        "5"
      ],
      [
        "p",
        "a"
      ],
      [
        "at",
        "h"
      ],
      [
        "lin",
        "k"
      ],
      [
        "t",
        "a"
      ],
      [
        "d",
        "k"
      ],
      [
        "8",
        "5"
      ],
      [
        "xn",
        "--"
      ],
      [
        "st",
        "ud"
      ],
      [
        "z",
        "hou"
      ],
      [
        "m",
        "ark"
      ],
      [
        "c",
        "n"
      ],
      [
        "s",
        "ec"
      ],
      [
        "stag",
        "ing"
      ],
      [
        "c",
        "as"
      ],
      [
        "1",
        "1"
      ],
      [
        "a",
        "ut"
      ],
      [
        "p",
        "re"
      ],
      [
        "u",
        "g"
      ],
      [
        "stat",
        "us"
      ],
      [
        "pro",
        "xy"
      ],
      [
        "lo",
        "ad"
      ],
      [
        "c",
        "ent"
      ],
      [
        "f",
        "t"
      ],
      [
        "m",
        "ar"
      ],
      [
        "c",
        "p"
      ],
      [
        "c",
        "al"
      ],
      [
        "c",
        "or"
      ],
      [
        "r",
        "a"
      ],
      [
        "c",
        "ar"
      ],
      [
        "t",
        "ur"
      ],
      [
        "0",
        "4"
      ],
      [
        "ac",
        "e"
      ],
      [
        "b",
        "g"
      ],
      [
        "p",
        "art"
      ],
      [
        "h",
        "y"
      ],
      [
        "do",
        "wn"
      ],
      [
        "s",
        "v"
      ],
      [
        "l",
        "t"
      ],
      [
        "e",
        "z"
      ],
      [
        "2",
        "7"
      ],
      [
        "e",
        "p"
      ],
      [
        "m",
        "ent"
      ],
      [
        "im",
        "ages"
      ],
      [
        "4",
        "4"
      ],
      [
        "us",
        "s"
      ],
      [
        "t",
        "l"
      ],
      [
        "ass",
        "ets"
      ],
      [
        "en",
        "s"
      ],
      [
        "o",
        "w"
      ],
      [
        "con",
        "t"
      ],
      [
        "s",
        "w"
      ],
      [
        "on",
        "e"
      ],
      [
        "0",
        "5"
      ],
      [
        "-",
        "w"
      ],
      [
        "ion",
        "s"
      ],
      [
        "an",
        "c"
      ],
      [
        "m",
        "t"
      ],
      [
        "6",
        "6"
      ],
      [
        "al",
        "th"
      ],
      [
        "r",
        "y"
      ],
      [
        "mo",
        "bil"
      ],
      [
        "-",
        "t"
      ],
      [
        "d",
        "s"
      ],
      [
        "al",
        "og"
      ],
      [
        "d",
        "at"
      ],
      [
        "n",
        "a"
      ],
      [
        "l",
        "ab"
      ],
      [
        "re",
        "g"
      ],
      [
        "in",
        "ter"
      ],
      [
        "un",
        "g"
      ],
      [
        "an",
        "ce"
      ],
      [
        "n",
        "er"
      ],
      [
        "l",
        "y"
      ],
      [
        "vide",
        "o"
      ],
      [
        "wor",
        "k"
      ],
      [
        "g",
        "ro"
      ],
      [
        "h",
        "i"
      ],
      [
        "3",
        "7"
      ],
      [
        "a",
        "."
      ],
      [
        "s",
        "on"
      ],
      [
        "g",
        "am"
      ],
      [
        "an",
        "k"
      ],
      [
        "en",
        "c"
      ],
      [
        "s",
        "y"
      ],
      [
        "f",
        "f"
      ],
      [
        "log",
        "in"
      ],
      [
        "4",
        "5"
      ],
      [
        ".",
        "m"
      ],
      [
        "2",
        "9"
      ],
      [
        "e",
        "e"
      ],
      [
        "j",
        "p"
      ],
      [
        "ac",
        "coun"
      ],
      [
        "f",
        "re"
      ],
      [
        "3",
        "8"
      ],
      [
        "b",
        "y"
      ],
      [
        "s",
        "it"
      ],
      [
        "ul",
        "t"
      ],
      [
        "f",
        "er"
      ],
      [
        "comm",
        "un"
      ],
      [
        "a",
        "o"
      ],
      [
        "n",
        "i"
      ],
      [
        "t",
        "on"
      ],
      [
        "en",
        "ch"
      ],
      [
        "ing",
        "-"
      ],
      [
        "l",
        "v"
      ],
      [
        "6",
        "5"
      ],
      [
        "n",
        "y"
      ],
      [
        "c",
        "amp"
      ],
      [
        "p",
        "an"
      ],
      [
        "te",
        "ch"
      ],
      [
        "v",
        "o"
      ],
      [
        "c",
        "z"
      ],
      [
        "3",
        "0"
      ],
      [
        "2",
        "8"
      ],
      [
        "h",
        "er"
      ],
      [
        "ho",
        "m"
      ],
      [
        "c",
        "loud"
      ],
      [
        "w",
        "p"
      ],
      [
        "lo",
        "t"
      ],
      [
        "w",
        "o"
      ],
      [
        "g",
        "a"
      ],
      [
        "ic",
        "es"
      ],
      [
        "4",
        "7"
      ],
      [
        "pl",
        "ay"
      ],
      [
        "s",
        "l"
      ],
      [
        "n",
        "ect"
      ],
      [
        "6",
        "9"
      ],
      [
        "al",
        "i"
      ],
      [
        "us",
        "e"
      ],
      [
        "ev",
        "ents"
      ],
      [
        "l",
        "et"
      ],
      [
        "for",
        "m"
      ],
      [
        "3",
        "9"
      ],
      [
        "p",
        "ub"
      ],
      [
        "mark",
        "et"
      ],
      [
        "s",
        "d"
      ],
      [
        "x",
        "i"
      ],
      [
        "he",
        "alth"
      ],
      [
        "st",
        "or"
      ],
      [
        "j",
        "ap"
      ],
      [
        "al",
        "e"
      ],
      [
        "g",
        "l"
      ],
      [
        "is",
        "s"
      ],
      [
        "at",
        "or"
      ],
      [
        "jo",
        "bs"
      ],
      [
        "l",
        "es"
      ],
      [
        "i",
        "de"
      ],
      [
        "x",
        "x"
      ],
      [
        "on",
        "es"
      ],
      [
        "w",
        "ik"
      ],
      [
        "le",
        "arn"
      ],
      [
        "li",
        "sh"
      ],
      [
        "m",
        "er"
      ],
      [
        "down",
        "load"
      ],
      [
        "w",
        "h"
      ],
      [
        "l",
        "d"
      ],
      [
        "st",
        "r"
      ],
      [
        "n",
        "am"
      ],
      [
        "0",
        "8"
      ],
      [
        "jap",
        "an"
      ],
      [
        "-",
        "h"
      ],
      [
        "k",
        "r"
      ],
      [
        "d",
        "ig"
      ],
      [
        "k",
        "a"
      ],
      [
        "bo",
        "ard"
      ],
      [
        "b",
        "al"
      ],
      [
        "b",
        "ro"
      ],
      [
        "g",
        "et"
      ],
      [
        "k",
        "er"
      ],
      [
        "c",
        "i"
      ],
      [
        "e",
        "y"
      ],
      [
        "commun",
        "ity"
      ],
      [
        "f",
        "in"
      ],
      [
        "ho",
        "st"
      ],
      [
        "cat",
        "alog"
      ],
      [
        "care",
        "ers"
      ],
      [
        "fr",
        "ench"
      ],
      [
        "at",
        "t"
      ],
      [
        "ger",
        "man"
      ],
      [
        "b",
        "b"
      ],
      [
        "r",
        "uss"
      ],
      [
        "ur",
        "s"
      ],
      [
        "w",
        "in"
      ],
      [
        "li",
        "ve"
      ],
      [
        "-",
        "n"
      ],
      [
        "6",
        "7"
      ],
      [
        "ac",
        "ade"
      ],
      [
        "-",
        "v"
      ],
      [
        "0",
        "7"
      ],
      [
        "g",
        "en"
      ],
      [
        "au",
        "th"
      ],
      [
        "t",
        "t"
      ],
      [
        "u",
        "al"
      ],
      [
        "re",
        "ad"
      ],
      [
        "ho",
        "me"
      ],
      [
        "sp",
        "an"
      ],
      [
        "ut",
        "ch"
      ],
      [
        "b",
        "ur"
      ],
      [
        "h",
        "ar"
      ],
      [
        "m",
        "em"
      ],
      [
        "app",
        "s"
      ],
      [
        "u",
        "gu"
      ],
      [
        "it",
        "h"
      ],
      [
        "u",
        "a"
      ],
      [
        "5",
        "5"
      ],
      [
        "sec",
        "ure"
      ],
      [
        "ar",
        "ab"
      ],
      [
        "el",
        "op"
      ],
      [
        "con",
        "nect"
      ],
      [
        "ap",
        "pl"
      ],
      [
        "h",
        "n"
      ],
      [
        "k",
        "y"
      ],
      [
        "v",
        "is"
      ],
      [
        "0",
        "6"
      ],
      [
        "www.",
        "m"
      ],
      [
        "0",
        "9"
      ],
      [
        "b",
        "us"
      ],
      [
        "accoun",
        "t"
      ],
      [
        "k",
        "ore"
      ],
      [
        "p",
        "c"
      ],
      [
        "r",
        "t"
      ],
      [
        "u",
        "x"
      ],
      [
        "dev",
        "elop"
      ],
      [
        "p",
        "ers"
      ],
      [
        "d",
        "utch"
      ],
      [
        "span",
        "ish"
      ],
      [
        "th",
        "e"
      ],
      [
        "o",
        "ur"
      ],
      [
        "8",
        "9"
      ],
      [
        "0",
        "2"
      ],
      [
        "www",
        "2"
      ],
      [
        "d",
        "is"
      ],
      [
        "i",
        "x"
      ],
      [
        "o",
        "ol"
      ],
      [
        "ital",
        "ian"
      ],
      [
        "4",
        "9"
      ],
      [
        "en",
        "ce"
      ],
      [
        "m",
        "at"
      ],
      [
        "re",
        "d"
      ],
      [
        "g",
        "y"
      ],
      [
        "il",
        "le"
      ],
      [
        "z",
        "z"
      ],
      [
        "-",
        "r"
      ],
      [
        "russ",
        "ian"
      ],
      [
        "0",
        "3"
      ],
      [
        "gre",
        "ek"
      ],
      [
        "u",
        "e"
      ],
      [
        "l",
        "ic"
      ],
      [
        "mobil",
        "e"
      ],
      [
        "v",
        "n"
      ],
      [
        "or",
        "s"
      ],
      [
        "wik",
        "i"
      ],
      [
        "st",
        "er"
      ],
      [
        "ig",
        "h"
      ],
      [
        "m",
        "n"
      ],
      [
        "-",
        "f"
      ],
      [
        "japan",
        "ese"
      ],
      [
        "on",
        "t"
      ],
      [
        "kore",
        "an"
      ],
      [
        "port",
        "ugu"
      ],
      [
        "r",
        "is"
      ],
      [
        "m",
        "c"
      ],
      [
        "ing",
        "s"
      ],
      [
        "b",
        "ar"
      ],
      [
        "in",
        "v"
      ],
      [
        "am",
        "s"
      ],
      [
        "portugu",
        "ese"
      ],
      [
        "www.",
        "s"
      ],
      [
        "in",
        "a"
      ],
      [
        "g",
        "h"
      ],
      [
        ".",
        "www"
      ],
      [
        "d",
        "el"
      ],
      [
        "f",
        "j"
      ],
      [
        "g",
        "z"
      ],
      [
        "-",
        "k"
      ],
      [
        "y",
        "ang"
      ],
      [
        "o",
        "ut"
      ],
      [
        "p",
        "ho"
      ],
      [
        "d",
        "c"
      ],
      [
        "bo",
        "x"
      ],
      [
        "arab",
        "ic"
      ],
      [
        "a",
        "sh"
      ],
      [
        "b",
        "n"
      ],
      [
        "p",
        "k"
      ],
      [
        "i",
        "j"
      ],
      [
        "t",
        "w"
      ],
      [
        "le",
        "g"
      ],
      [
        "s",
        "n"
      ],
      [
        "4",
        "8"
      ],
      [
        "3",
        "3"
      ],
      [
        "se",
        "arch"
      ],
      [
        "m",
        "p"
      ],
      [
        "pr",
        "ess"
      ],
      [
        "h",
        "ub"
      ],
      [
        "v",
        "al"
      ],
      [
        "m",
        "it"
      ],
      [
        "1",
        "."
      ],
      [
        "k",
        "k"
      ],
      [
        "f",
        "ac"
      ],
      [
        "lo",
        "w"
      ],
      [
        "tr",
        "ain"
      ],
      [
        "or",
        "d"
      ],
      [
        "v",
        "a"
      ],
      [
        "m",
        "l"
      ],
      [
        "c",
        "an"
      ],
      [
        "7",
        "5"
      ],
      [
        "em",
        "ail"
      ],
      [
        "ch",
        "at"
      ],
      [
        "or",
        "y"
      ],
      [
        "-",
        "com"
      ],
      [
        "c",
        "es"
      ],
      [
        "c",
        "li"
      ],
      [
        "g",
        "ir"
      ],
      [
        "s",
        "al"
      ],
      [
        "d",
        "ay"
      ],
      [
        "w",
        "il"
      ],
      [
        ".",
        "d"
      ],
      [
        "id",
        "es"
      ],
      [
        "ji",
        "ang"
      ],
      [
        ".",
        "b"
      ],
      [
        "6",
        "8"
      ],
      [
        "on",
        "d"
      ],
      [
        "ch",
        "e"
      ],
      [
        "ig",
        "ht"
      ],
      [
        "to",
        "ol"
      ],
      [
        "g",
        "d"
      ],
      [
        "m",
        "et"
      ],
      [
        "ch",
        "ang"
      ],
      [
        "m",
        "ap"
      ],
      [
        "www.",
        "b"
      ],
      [
        "fil",
        "es"
      ],
      [
        "c",
        "ms"
      ],
      [
        "serv",
        "ice"
      ],
      [
        "on",
        "s"
      ],
      [
        "f",
        "s"
      ],
      [
        "g",
        "lo"
      ],
      [
        "t",
        "v"
      ],
      [
        "appl",
        "y"
      ],
      [
        "d",
        "y"
      ],
      [
        "m",
        "us"
      ],
      [
        "s",
        "el"
      ],
      [
        "em",
        "p"
      ],
      [
        "6",
        "4"
      ],
      [
        "p",
        "ar"
      ],
      [
        ".com",
        "."
      ],
      [
        "e",
        "g"
      ],
      [
        "er",
        "t"
      ],
      [
        "al",
        "-"
      ],
      [
        "y",
        "t"
      ],
      [
        "ind",
        "ones"
      ],
      [
        "o",
        "-"
      ],
      [
        "s",
        "ite"
      ],
      [
        "en",
        "-"
      ],
      [
        "m",
        "k"
      ],
      [
        "em",
        "ent"
      ],
      [
        "u",
        "th"
      ],
      [
        "p",
        "ay"
      ],
      [
        "u",
        "z"
      ],
      [
        "ind",
        "i"
      ],
      [
        "i",
        "re"
      ],
      [
        "es",
        "-"
      ],
      [
        "prod",
        "uc"
      ],
      [
        "l",
        "l"
      ],
      [
        "s",
        "b"
      ],
      [
        "t",
        "ion"
      ],
      [
        "dig",
        "ital"
      ],
      [
        "cont",
        "ent"
      ],
      [
        "i",
        "y"
      ],
      [
        "p",
        "ol"
      ],
      [
        "cent",
        "er"
      ],
      [
        "of",
        "f"
      ],
      [
        "d",
        "-"
      ],
      [
        "cl",
        "ub"
      ],
      [
        "acade",
        "my"
      ],
      [
        "ic",
        "a"
      ],
      [
        "w",
        "at"
      ],
      [
        "j",
        "s"
      ],
      [
        "sh",
        "an"
      ],
      [
        "vi",
        "et"
      ],
      [
        "ed",
        "u"
      ],
      [
        "a",
        "ir"
      ],
      [
        "b",
        "eng"
      ],
      [
        "st",
        "ar"
      ],
      [
        "h",
        "am"
      ],
      [
        "i",
        "w"
      ],
      [
        "ac",
        "c"
      ],
      [
        "m",
        "b"
      ],
      [
        "e",
        "f"
      ],
      [
        "9",
        "5"
      ],
      [
        "p",
        "at"
      ],
      [
        "th",
        "ai"
      ],
      [
        "do",
        "c"
      ],
      [
        "li",
        "v"
      ],
      [
        "ac",
        "y"
      ],
      [
        "m",
        "ag"
      ],
      [
        "ur",
        "n"
      ],
      [
        "bus",
        "in"
      ],
      [
        "k",
        "u"
      ],
      [
        "m",
        "r"
      ],
      [
        "c",
        "ap"
      ],
      [
        "c",
        "am"
      ],
      [
        "i",
        "er"
      ],
      [
        "gu",
        "ides"
      ],
      [
        "se",
        "x"
      ],
      [
        "2",
        "12"
      ],
      [
        "ez",
        "proxy"
      ],
      [
        "f",
        "u"
      ],
      [
        "indones",
        "ian"
      ],
      [
        "h",
        "indi"
      ],
      [
        "s",
        "an"
      ],
      [
        "er",
        "y"
      ],
      [
        "ex",
        "t"
      ],
      [
        "tur",
        "k"
      ],
      [
        "a",
        "a"
      ],
      [
        ".",
        "r"
      ],
      [
        "pho",
        "to"
      ],
      [
        "g",
        "s"
      ],
      [
        "viet",
        "nam"
      ],
      [
        "b",
        "c"
      ],
      [
        "p",
        "-"
      ],
      [
        "ation",
        "s"
      ],
      [
        "7",
        "8"
      ],
      [
        "el",
        "d"
      ],
      [
        "le",
        "y"
      ],
      [
        "h",
        "s"
      ],
      [
        "cas",
        "ino"
      ],
      [
        "des",
        "ign"
      ],
      [
        "io",
        "s"
      ],
      [
        "beng",
        "ali"
      ],
      [
        "train",
        "ing"
      ],
      [
        "f",
        "c"
      ],
      [
        "an",
        "et"
      ],
      [
        "pl",
        "at"
      ],
      [
        "da",
        "sh"
      ],
      [
        "w",
        "est"
      ],
      [
        "is",
        "e"
      ],
      [
        "inv",
        "est"
      ],
      [
        "r",
        "ad"
      ],
      [
        "cl",
        "ass"
      ],
      [
        "bet",
        "a"
      ],
      [
        "k",
        "s"
      ],
      [
        "4",
        "6"
      ],
      [
        "d",
        "b"
      ],
      [
        "al",
        "s"
      ],
      [
        "port",
        "s"
      ],
      [
        "d",
        "l"
      ],
      [
        "f",
        "y"
      ],
      [
        "m",
        "m"
      ],
      [
        "la",
        "w"
      ],
      [
        "-",
        "in"
      ],
      [
        "j",
        "u"
      ],
      [
        ".",
        "share"
      ],
      [
        "j",
        "w"
      ],
      [
        "j",
        "in"
      ],
      [
        "wo",
        "od"
      ],
      [
        "c",
        "re"
      ],
      [
        "turk",
        "ish"
      ],
      [
        "as",
        "ino"
      ],
      [
        "t",
        "or"
      ],
      [
        "gro",
        "up"
      ],
      [
        "ad",
        "m"
      ],
      [
        "li",
        "g"
      ],
      [
        "7",
        "9"
      ],
      [
        "l",
        "u"
      ],
      [
        "an",
        "a"
      ],
      [
        "i",
        "ch"
      ],
      [
        "t",
        "op"
      ],
      [
        "ar",
        "m"
      ],
      [
        "im",
        "age"
      ],
      [
        "-",
        "re"
      ],
      [
        "av",
        "el"
      ],
      [
        "care",
        "er"
      ],
      [
        "reg",
        "ist"
      ],
      [
        "el",
        "e"
      ],
      [
        "p",
        "ark"
      ],
      [
        "aut",
        "o"
      ],
      [
        "blog",
        "s"
      ],
      [
        "c",
        "m"
      ],
      [
        "d",
        "d"
      ],
      [
        "ent",
        "er"
      ],
      [
        "vietnam",
        "ese"
      ],
      [
        "t",
        "im"
      ],
      [
        "r",
        "l"
      ],
      [
        "po",
        "lish"
      ],
      [
        "5",
        "8"
      ],
      [
        "s",
        "ol"
      ],
      [
        "z",
        "y"
      ],
      [
        "2",
        "."
      ],
      [
        "busin",
        "ess"
      ],
      [
        "en",
        "n"
      ],
      [
        "for",
        "ms"
      ],
      [
        "b",
        "i"
      ],
      [
        "b",
        "ack"
      ],
      [
        "res",
        "our"
      ],
      [
        "k",
        "l"
      ],
      [
        "w",
        "er"
      ],
      [
        "no",
        "w"
      ],
      [
        "st",
        "re"
      ],
      [
        "s",
        "co"
      ],
      [
        "2",
        "b"
      ],
      [
        "o",
        "v"
      ],
      [
        "pers",
        "ian"
      ],
      [
        "-",
        "prod"
      ],
      [
        "it",
        "es"
      ],
      [
        "wor",
        "ld"
      ],
      [
        "al",
        "um"
      ],
      [
        "w",
        "r"
      ],
      [
        "t",
        "al"
      ],
      [
        "ic",
        "o"
      ],
      [
        "sh",
        "ip"
      ],
      [
        "n",
        "ers"
      ],
      [
        "r",
        "et"
      ],
      [
        "w",
        "a"
      ],
      [
        "gre",
        "en"
      ],
      [
        "an",
        "al"
      ],
      [
        "qu",
        "e"
      ],
      [
        "d",
        "f"
      ],
      [
        "d",
        "u"
      ],
      [
        "m",
        "g"
      ],
      [
        "li",
        "st"
      ],
      [
        "w",
        "s"
      ],
      [
        "glo",
        "bal"
      ],
      [
        "serv",
        "ices"
      ],
      [
        "col",
        "le"
      ],
      [
        "web",
        "mail"
      ],
      [
        "5",
        "9"
      ],
      [
        "ab",
        "le"
      ],
      [
        "se",
        "o"
      ],
      [
        "h",
        "an"
      ],
      [
        "h",
        "k"
      ],
      [
        "y",
        "a"
      ],
      [
        "iv",
        "ers"
      ],
      [
        ".",
        "p"
      ],
      [
        "t",
        "-"
      ],
      [
        "www.",
        "k"
      ],
      [
        "part",
        "ner"
      ],
      [
        "n",
        "s"
      ],
      [
        "re",
        "c"
      ],
      [
        "www.",
        "c"
      ],
      [
        "w",
        "u"
      ],
      [
        "d",
        "en"
      ],
      [
        "o",
        "c"
      ],
      [
        "ar",
        "s"
      ],
      [
        "sh",
        "ow"
      ],
      [
        "tr",
        "ack"
      ],
      [
        "5",
        "7"
      ],
      [
        "ho",
        "use"
      ],
      [
        "st",
        "e"
      ],
      [
        "b",
        "bs"
      ],
      [
        "b",
        "j"
      ],
      [
        "ic",
        "al"
      ],
      [
        "l",
        "s"
      ],
      [
        "y",
        "i"
      ],
      [
        "k",
        "n"
      ],
      [
        "n",
        "an"
      ],
      [
        "w",
        "ay"
      ],
      [
        "p",
        "or"
      ],
      [
        "en",
        "er"
      ],
      [
        "on",
        "-"
      ],
      [
        "l",
        "p"
      ],
      [
        "c",
        "el"
      ],
      [
        "e",
        "."
      ],
      [
        "ev",
        "ent"
      ],
      [
        "ort",
        "h"
      ],
      [
        "h",
        "ai"
      ],
      [
        "m",
        "en"
      ],
      [
        "3",
        "1"
      ],
      [
        "a",
        "x"
      ],
      [
        "s",
        "ur"
      ],
      [
        "di",
        "re"
      ],
      [
        "er",
        "o"
      ],
      [
        "h",
        "5"
      ],
      [
        "l",
        "b"
      ],
      [
        "v",
        "ille"
      ],
      [
        "j",
        "y"
      ],
      [
        "9",
        "8"
      ],
      [
        "s",
        "g"
      ],
      [
        "ic",
        "om"
      ],
      [
        "pub",
        "lic"
      ],
      [
        "dash",
        "board"
      ],
      [
        "k",
        "ing"
      ],
      [
        "op",
        "en"
      ],
      [
        "t",
        "i"
      ],
      [
        "in",
        "c"
      ],
      [
        "b",
        "an"
      ],
      [
        "dat",
        "a"
      ],
      [
        "p",
        "et"
      ],
      [
        "z",
        "a"
      ],
      [
        ".",
        "w"
      ],
      [
        "in",
        "st"
      ],
      [
        "ca",
        "st"
      ],
      [
        "wor",
        "d"
      ],
      [
        "market",
        "ing"
      ],
      [
        "ol",
        "f"
      ],
      [
        "des",
        "k"
      ],
      [
        "log",
        "y"
      ],
      [
        "3",
        "2"
      ],
      [
        "p",
        "al"
      ],
      [
        "n",
        "at"
      ],
      [
        "p",
        "i"
      ],
      [
        "as",
        "k"
      ],
      [
        "-c",
        "asino"
      ],
      [
        "ac",
        "ion"
      ],
      [
        "pl",
        "us"
      ],
      [
        "as",
        "e"
      ],
      [
        "ust",
        "om"
      ],
      [
        "w",
        "ard"
      ],
      [
        "dire",
        "ct"
      ],
      [
        "www.",
        "share"
      ],
      [
        "no",
        "v"
      ],
      [
        "p",
        "ass"
      ],
      [
        "y",
        "n"
      ],
      [
        "ho",
        "l"
      ],
      [
        "th",
        "e-"
      ],
      [
        "ese",
        "arch"
      ],
      [
        "u",
        "an"
      ],
      [
        "sh",
        "i"
      ],
      [
        "inter",
        "n"
      ],
      [
        "j",
        "e"
      ],
      [
        "0",
        "-"
      ],
      [
        "t",
        "g"
      ],
      [
        "tr",
        "ust"
      ],
      [
        "ch",
        "ec"
      ],
      [
        "u",
        "i"
      ],
      [
        "er",
        "."
      ],
      [
        "ro",
        "om"
      ],
      [
        "gr",
        "ad"
      ],
      [
        "af",
        "f"
      ],
      [
        "m",
        "or"
      ],
      [
        "st",
        "age"
      ],
      [
        "e",
        "o"
      ],
      [
        "l",
        "as"
      ],
      [
        "mo",
        "v"
      ],
      [
        "eu",
        "ro"
      ],
      [
        "c",
        "ial"
      ],
      [
        "z",
        "u"
      ],
      [
        "7",
        "6"
      ],
      [
        ".",
        "shop"
      ],
      [
        "re",
        "al"
      ],
      [
        "ins",
        "ur"
      ],
      [
        "b",
        "el"
      ],
      [
        "pre",
        "view"
      ],
      [
        "part",
        "ners"
      ],
      [
        "c",
        "d"
      ],
      [
        "c",
        "le"
      ],
      [
        "v",
        "od"
      ],
      [
        "www.",
        "h"
      ],
      [
        "pro",
        "j"
      ],
      [
        "g",
        "i"
      ],
      [
        "n",
        "ing"
      ],
      [
        "r",
        "al"
      ],
      [
        "www",
        "-"
      ],
      [
        "l",
        "er"
      ],
      [
        "z",
        "e"
      ],
      [
        "ad",
        "a"
      ],
      [
        "20",
        "24"
      ],
      [
        "20",
        "25"
      ],
      [
        "pr",
        "es"
      ],
      [
        "c",
        "b"
      ],
      [
        "pr",
        "int"
      ],
      [
        "go",
        "v"
      ],
      [
        "7",
        "4"
      ],
      [
        "b",
        "or"
      ],
      [
        "c",
        "ity"
      ],
      [
        "m",
        "u"
      ],
      [
        "m",
        "ac"
      ],
      [
        "us",
        "-"
      ],
      [
        "m",
        "ww"
      ],
      [
        "bu",
        "y"
      ],
      [
        "b",
        "ers"
      ],
      [
        "in",
        "k"
      ],
      [
        "il",
        "d"
      ],
      [
        "tr",
        "ans"
      ],
      [
        "l",
        "g"
      ],
      [
        "o",
        "b"
      ],
      [
        "alum",
        "ni"
      ],
      [
        "tl",
        "h"
      ],
      [
        "b",
        "ai"
      ],
      [
        "resour",
        "ces"
      ],
      [
        "st",
        "art"
      ],
      [
        "3",
        "g"
      ],
      [
        "a",
        "j"
      ],
      [
        "w",
        "al"
      ],
      [
        "yu",
        "a"
      ],
      [
        "ch",
        "eng"
      ],
      [
        "vi",
        "rt"
      ],
      [
        "sp",
        "r"
      ],
      [
        "lo",
        "ck"
      ],
      [
        "stud",
        "ent"
      ],
      [
        "k",
        "ar"
      ],
      [
        "at",
        "es"
      ],
      [
        "it",
        "s"
      ],
      [
        "eb",
        "o"
      ],
      [
        "tr",
        "avel"
      ],
      [
        "a",
        "e"
      ],
      [
        "org",
        "."
      ],
      [
        "in",
        "-"
      ],
      [
        "d",
        "an"
      ],
      [
        "sr",
        "la"
      ],
      [
        "t",
        "p"
      ],
      [
        "ad",
        "s"
      ],
      [
        "gir",
        "is"
      ],
      [
        "pl",
        "an"
      ],
      [
        "-c",
        "dn"
      ],
      [
        "ot",
        "q"
      ],
      [
        "for",
        "d"
      ],
      [
        "sch",
        "ool"
      ],
      [
        "bl",
        "ack"
      ],
      [
        ".",
        "dev"
      ],
      [
        "ed",
        "uc"
      ],
      [
        "5",
        "4"
      ],
      [
        "www.",
        "n"
      ],
      [
        "ho",
        "us"
      ],
      [
        "c",
        "u"
      ],
      [
        "h",
        "ill"
      ],
      [
        "m",
        "ic"
      ],
      [
        "d",
        "g"
      ],
      [
        "il",
        "y"
      ],
      [
        "m",
        "x"
      ],
      [
        "p",
        "p"
      ],
      [
        "to",
        "ur"
      ],
      [
        "i",
        "as"
      ],
      [
        "adm",
        "iss"
      ],
      [
        "gr",
        "ap"
      ],
      [
        "s",
        "so"
      ],
      [
        "-",
        "de"
      ],
      [
        "ul",
        "ty"
      ],
      [
        "tr",
        "anet"
      ],
      [
        "p",
        "ic"
      ],
      [
        "w",
        "ar"
      ],
      [
        "so",
        "uth"
      ],
      [
        "cy",
        "rl"
      ],
      [
        "sr",
        "cyrl"
      ],
      [
        "20",
        "23"
      ],
      [
        "k",
        "i"
      ],
      [
        "j",
        "am"
      ],
      [
        "s",
        "am"
      ],
      [
        "de",
        "x"
      ],
      [
        "br",
        "and"
      ],
      [
        ".",
        "h"
      ],
      [
        ".",
        "n"
      ],
      [
        "k",
        "m"
      ],
      [
        "fac",
        "ulty"
      ],
      [
        "s",
        "q"
      ],
      [
        "pro",
        "mo"
      ],
      [
        "po",
        "st"
      ],
      [
        ".",
        "v"
      ],
      [
        ".",
        "g"
      ],
      [
        "b",
        "est"
      ],
      [
        "ut",
        "-"
      ],
      [
        "2",
        "-"
      ],
      [
        "j",
        "j"
      ],
      [
        "vi",
        "p"
      ],
      [
        "tool",
        "s"
      ],
      [
        "t",
        "c"
      ],
      [
        "lib",
        "guides"
      ],
      [
        ".",
        "app"
      ],
      [
        "q",
        "ing"
      ],
      [
        "6",
        "3"
      ],
      [
        "ag",
        "en"
      ],
      [
        ".",
        "web"
      ],
      [
        "s",
        "im"
      ],
      [
        "z",
        "x"
      ],
      [
        "er",
        "n"
      ],
      [
        "an",
        "-"
      ],
      [
        "www.",
        "p"
      ],
      [
        "k",
        "b"
      ],
      [
        "t",
        "em"
      ],
      [
        "y",
        "e"
      ],
      [
        "ab",
        "et"
      ],
      [
        "4",
        "0"
      ],
      [
        "l",
        "ing"
      ],
      [
        "co",
        "ver"
      ],
      [
        "stud",
        "io"
      ],
      [
        "li",
        "fe"
      ],
      [
        "s",
        "and"
      ],
      [
        "s",
        "ub"
      ],
      [
        "s",
        "um"
      ],
      [
        "cl",
        "ick"
      ],
      [
        "i",
        "ent"
      ],
      [
        "sm",
        "art"
      ],
      [
        "m",
        "art"
      ],
      [
        "fo",
        "od"
      ],
      [
        "man",
        "ag"
      ],
      [
        "t",
        "u"
      ],
      [
        "z",
        "o"
      ],
      [
        "www.",
        "g"
      ],
      [
        "develop",
        "er"
      ],
      [
        "er",
        "e"
      ],
      [
        "vi",
        "d"
      ],
      [
        "virt",
        "ual"
      ],
      [
        "h",
        "l"
      ],
      [
        "m",
        "-"
      ],
      [
        "p",
        "ing"
      ],
      [
        "www.",
        "d"
      ],
      [
        "b",
        "io"
      ],
      [
        "p",
        "y"
      ],
      [
        "x",
        "in"
      ],
      [
        "ad",
        "v"
      ],
      [
        ".c",
        "n"
      ],
      [
        "c",
        "f"
      ],
      [
        "l",
        "an"
      ],
      [
        "s",
        "en"
      ],
      [
        "jo",
        "b"
      ],
      [
        "3",
        "36"
      ],
      [
        ".",
        "prod"
      ],
      [
        "r",
        "en"
      ],
      [
        "ar",
        "a"
      ],
      [
        "20",
        "26"
      ],
      [
        "t",
        "ick"
      ],
      [
        "so",
        "ft"
      ],
      [
        "8",
        "7"
      ],
      [
        "s",
        "z"
      ],
      [
        "mus",
        "ic"
      ],
      [
        "ch",
        "r"
      ],
      [
        "sp",
        "ace"
      ],
      [
        "gu",
        "ang"
      ],
      [
        "h",
        "and"
      ],
      [
        "m",
        "h"
      ],
      [
        "1",
        "-"
      ],
      [
        "f",
        "it"
      ],
      [
        "x",
        "h"
      ],
      [
        "ft",
        "p"
      ],
      [
        "t",
        "en"
      ],
      [
        "camp",
        "us"
      ],
      [
        "am",
        "er"
      ],
      [
        "v",
        "en"
      ],
      [
        "ar",
        "i"
      ],
      [
        "te",
        "x"
      ],
      [
        "a",
        "ur"
      ],
      [
        "9",
        "7"
      ],
      [
        "st",
        "em"
      ],
      [
        "it",
        "or"
      ],
      [
        "f",
        "b"
      ],
      [
        "o",
        "h"
      ],
      [
        "p",
        "n"
      ],
      [
        "p",
        "ages"
      ],
      [
        "-s",
        "erv"
      ],
      [
        "85",
        "cc"
      ],
      [
        "-com",
        "."
      ],
      [
        "cli",
        "ent"
      ],
      [
        "q",
        "i"
      ],
      [
        "ma",
        "in"
      ],
      [
        "5",
        "6"
      ],
      [
        "te",
        "am"
      ],
      [
        "c",
        "ro"
      ],
      [
        "m",
        "as"
      ],
      [
        "m",
        "al"
      ],
      [
        "t",
        "k"
      ],
      [
        "arch",
        "ive"
      ],
      [
        "co",
        "ur"
      ],
      [
        "5",
        "1"
      ],
      [
        "sm",
        "ith"
      ],
      [
        "8",
        "6"
      ],
      [
        "read",
        ".share"
      ],
      [
        "b",
        "all"
      ],
      [
        "uc",
        "k"
      ],
      [
        "am",
        "a"
      ],
      [
        "m.",
        "share"
      ],
      [
        ".",
        "blog"
      ],
      [
        "r",
        "w"
      ],
      [
        "com",
        "p"
      ],
      [
        "s",
        "un"
      ],
      [
        "j",
        "ack"
      ],
      [
        "ag",
        "ent"
      ],
      [
        "ch",
        "ar"
      ],
      [
        "bur",
        "g"
      ],
      [
        "g",
        "ar"
      ],
      [
        "fe",
        "ed"
      ],
      [
        "co",
        "urs"
      ],
      [
        "tr",
        "y"
      ],
      [
        "yu",
        "an"
      ],
      [
        "8",
        "4"
      ],
      [
        "p",
        "u"
      ],
      [
        "st",
        "o"
      ],
      [
        "ch",
        "i"
      ],
      [
        "c",
        "-"
      ],
      [
        "w",
        "ell"
      ],
      [
        "b",
        "en"
      ],
      [
        "b",
        "ed"
      ],
      [
        "g",
        "it"
      ],
      [
        "9",
        "4"
      ],
      [
        "q",
        "a"
      ],
      [
        "s",
        "lot"
      ],
      [
        "un",
        "t"
      ],
      [
        "th",
        "er"
      ],
      [
        "fil",
        "e"
      ],
      [
        ".",
        "cdn"
      ],
      [
        "h",
        "aw"
      ],
      [
        "o",
        "u"
      ],
      [
        "d",
        "on"
      ],
      [
        "5",
        "0"
      ],
      [
        "ex",
        "pl"
      ],
      [
        "f",
        "ir"
      ],
      [
        "le",
        "-"
      ],
      [
        "sc",
        "i"
      ],
      [
        ".",
        "e"
      ],
      [
        "s",
        "f"
      ],
      [
        "re",
        "view"
      ],
      [
        "serv",
        "er"
      ],
      [
        "m",
        "il"
      ],
      [
        "sit",
        "es"
      ],
      [
        "c",
        "ustom"
      ],
      [
        "mo",
        "od"
      ],
      [
        "pl",
        "ace"
      ],
      [
        "gam",
        "e"
      ],
      [
        "k",
        "en"
      ],
      [
        "o",
        "x"
      ],
      [
        "www.",
        "r"
      ],
      [
        "com",
        "pan"
      ],
      [
        "ma",
        "ster"
      ],
      [
        "anal",
        "yt"
      ],
      [
        "a",
        "4"
      ],
      [
        "m",
        "d"
      ],
      [
        "www.",
        "j"
      ],
      [
        "z",
        "hu"
      ],
      [
        "ct",
        "ion"
      ],
      [
        "r",
        "ic"
      ],
      [
        ".",
        "k"
      ],
      [
        "s",
        "ign"
      ],
      [
        "j",
        "ia"
      ],
      [
        "gu",
        "ide"
      ],
      [
        "ation",
        "al"
      ],
      [
        "12",
        "3"
      ],
      [
        "li",
        "o"
      ],
      [
        "n",
        "u"
      ],
      [
        "help",
        "desk"
      ],
      [
        "un",
        "ivers"
      ],
      [
        "b",
        "d"
      ],
      [
        "f",
        "am"
      ],
      [
        "www.",
        "blog"
      ],
      [
        "in",
        "n"
      ],
      [
        "mo",
        "vi"
      ],
      [
        "b",
        "re"
      ],
      [
        "9",
        "6"
      ],
      [
        "n",
        "c"
      ],
      [
        "lig",
        "ht"
      ],
      [
        "-",
        "l"
      ],
      [
        "an",
        "o"
      ],
      [
        ".",
        "t"
      ],
      [
        "ent",
        "al"
      ],
      [
        "be",
        "ach"
      ],
      [
        "a",
        "ud"
      ],
      [
        "ag",
        "e-"
      ],
      [
        "f",
        "est"
      ],
      [
        "h",
        "d"
      ],
      [
        "p",
        "g"
      ],
      [
        "er",
        "ing"
      ],
      [
        "ap",
        "er"
      ],
      [
        "g",
        "all"
      ],
      [
        "20",
        "22"
      ],
      [
        "ch",
        "ool"
      ],
      [
        "or",
        "der"
      ],
      [
        "sc",
        "r"
      ],
      [
        "ch",
        "o"
      ],
      [
        "d",
        "ong"
      ],
      [
        "sel",
        "f"
      ],
      [
        "h",
        "b"
      ],
      [
        "r",
        "esearch"
      ],
      [
        "t",
        "re"
      ],
      [
        "acc",
        "ess"
      ],
      [
        "ro",
        "ck"
      ],
      [
        "88",
        "8"
      ],
      [
        "g",
        "olf"
      ],
      [
        "www.",
        "v"
      ],
      [
        "iv",
        "ing"
      ],
      [
        "forum",
        "s"
      ],
      [
        "g",
        "old"
      ],
      [
        "ag",
        "o"
      ],
      [
        "th",
        "em"
      ],
      [
        "b",
        "ay"
      ],
      [
        "-",
        "4"
      ],
      [
        "6",
        "0"
      ],
      [
        "us",
        "a"
      ],
      [
        "jo",
        "urn"
      ],
      [
        "m",
        "ad"
      ],
      [
        "w",
        "id"
      ],
      [
        "z",
        "j"
      ],
      [
        "st",
        "g"
      ],
      [
        "s",
        "j"
      ],
      [
        "y",
        "y"
      ],
      [
        ".",
        "ec"
      ],
      [
        "p",
        "en"
      ],
      [
        "po",
        "d"
      ],
      [
        "bo",
        "t"
      ],
      [
        "ro",
        "l"
      ],
      [
        "stre",
        "am"
      ],
      [
        "t",
        "x"
      ],
      [
        "le",
        "x"
      ],
      [
        "jo",
        "hn"
      ],
      [
        "f",
        "ort"
      ],
      [
        "b",
        "ig"
      ],
      [
        "g",
        "g"
      ],
      [
        "ww",
        "ww"
      ],
      [
        "co",
        "de"
      ],
      [
        "l",
        "or"
      ],
      [
        "p",
        "ur"
      ],
      [
        "v",
        "v"
      ],
      [
        "20",
        "21"
      ],
      [
        "so",
        "cial"
      ],
      [
        "-",
        "1"
      ],
      [
        "t",
        "ai"
      ],
      [
        "ad",
        "o"
      ],
      [
        "-",
        "hotel"
      ],
      [
        "a",
        "2"
      ],
      [
        "a",
        "3"
      ],
      [
        "h",
        "or"
      ],
      [
        "comm",
        "er"
      ],
      [
        "r",
        "el"
      ],
      [
        "sh",
        "o"
      ],
      [
        "j",
        "ing"
      ],
      [
        "it",
        "ion"
      ],
      [
        "iv",
        "es"
      ],
      [
        "at",
        "s"
      ],
      [
        "ro",
        "s"
      ],
      [
        "e",
        "i"
      ],
      [
        "r",
        "on"
      ],
      [
        "le",
        "v"
      ],
      [
        "fi",
        "eld"
      ],
      [
        "k",
        "al"
      ],
      [
        "m",
        "ents"
      ],
      [
        "analyt",
        "ics"
      ],
      [
        "b",
        "ank"
      ],
      [
        "g",
        "c"
      ],
      [
        "us",
        "er"
      ],
      [
        "s",
        "af"
      ],
      [
        "af",
        "fil"
      ],
      [
        "v",
        "r"
      ],
      [
        "w",
        "i"
      ],
      [
        "www.",
        "www"
      ],
      [
        "t",
        "hom"
      ],
      [
        "w",
        "ang"
      ],
      [
        "il",
        "e"
      ],
      [
        "j",
        "x"
      ],
      [
        "v",
        "2"
      ],
      [
        "cl",
        "ark"
      ],
      [
        "fa",
        "ir"
      ],
      [
        "affil",
        "i"
      ],
      [
        "l",
        "at"
      ],
      [
        "r",
        "am"
      ],
      [
        "-c",
        "on"
      ],
      [
        "gr",
        "and"
      ],
      [
        "3",
        "d"
      ],
      [
        "h",
        "c"
      ],
      [
        "m",
        "el"
      ],
      [
        "qu",
        "est"
      ],
      [
        "mood",
        "le"
      ],
      [
        "-",
        "web"
      ],
      [
        "b",
        "ab"
      ],
      [
        "m",
        "id"
      ],
      [
        "si",
        "de"
      ],
      [
        "learn",
        "ing"
      ],
      [
        "a",
        "5"
      ],
      [
        "k",
        "it"
      ],
      [
        "www.",
        "f"
      ],
      [
        "36",
        "5"
      ],
      [
        "educ",
        "ation"
      ],
      [
        "g",
        "b"
      ],
      [
        "s",
        "24"
      ],
      [
        "es",
        "c"
      ],
      [
        "sh",
        "ang"
      ],
      [
        "ut",
        "ions"
      ],
      [
        "16",
        "8"
      ],
      [
        "m",
        "f"
      ],
      [
        "el",
        "-"
      ],
      [
        "ut",
        "e"
      ],
      [
        "pr",
        "iv"
      ],
      [
        "admiss",
        "ions"
      ],
      [
        "s",
        "2"
      ],
      [
        "www.",
        "t"
      ],
      [
        "book",
        "ing"
      ],
      [
        "s",
        "er"
      ],
      [
        "w",
        "x"
      ],
      [
        "r",
        "est"
      ],
      [
        "et",
        "t"
      ],
      [
        ".",
        "cs"
      ],
      [
        "b",
        "ib"
      ],
      [
        "e",
        "ast"
      ],
      [
        "u",
        "at"
      ],
      [
        "i",
        "en"
      ],
      [
        "10",
        "4"
      ],
      [
        "ex",
        "per"
      ],
      [
        "n",
        "ess"
      ],
      [
        "sp",
        "e"
      ],
      [
        ".c",
        "loud"
      ],
      [
        "w",
        "are"
      ],
      [
        "20",
        "19"
      ],
      [
        "g",
        "t"
      ],
      [
        "es",
        "h"
      ],
      [
        "lin",
        "e"
      ],
      [
        "igh",
        "ts"
      ],
      [
        "ia",
        "-"
      ],
      [
        "la",
        "k"
      ],
      [
        "pro",
        "gr"
      ],
      [
        "serv",
        "ic"
      ],
      [
        "6",
        "1"
      ],
      [
        "u",
        "ch"
      ],
      [
        "ma",
        "x"
      ],
      [
        "con",
        "s"
      ],
      [
        "m.",
        "french"
      ],
      [
        "br",
        "id"
      ],
      [
        "z",
        "i"
      ],
      [
        "an",
        "ch"
      ],
      [
        "20",
        "20"
      ],
      [
        "b",
        "as"
      ],
      [
        "c",
        "ard"
      ],
      [
        "u",
        "f"
      ],
      [
        "a",
        "1"
      ],
      [
        "l",
        "it"
      ],
      [
        "v",
        "ol"
      ],
      [
        "ro",
        "y"
      ],
      [
        "ak",
        "e"
      ],
      [
        "h",
        "al"
      ],
      [
        "if",
        "ic"
      ],
      [
        "iv",
        "er"
      ],
      [
        "mem",
        "ber"
      ],
      [
        "yo",
        "ur"
      ],
      [
        "ro",
        "ad"
      ],
      [
        "ph",
        "il"
      ],
      [
        "te",
        "en"
      ],
      [
        "no",
        "t"
      ],
      [
        "g",
        "al"
      ],
      [
        "av",
        "e"
      ],
      [
        "mon",
        "t"
      ],
      [
        "n",
        "orth"
      ],
      [
        "ing",
        "ton"
      ],
      [
        "link",
        "s"
      ],
      [
        "b",
        "org"
      ],
      [
        "at",
        "er"
      ],
      [
        "20",
        "17"
      ],
      [
        "cours",
        "es"
      ],
      [
        "9",
        "0"
      ],
      [
        "y",
        "an"
      ],
      [
        "in",
        "dex"
      ],
      [
        "3",
        "-"
      ],
      [
        "g",
        "as"
      ],
      [
        "in",
        "tranet"
      ],
      [
        "insur",
        "ance"
      ],
      [
        "at",
        "a"
      ],
      [
        "am",
        "i"
      ],
      [
        "id",
        "ent"
      ],
      [
        "be",
        "aut"
      ],
      [
        "pa",
        "ir"
      ],
      [
        "b",
        "it"
      ],
      [
        "q",
        "q"
      ],
      [
        "10",
        "0"
      ],
      [
        "-c",
        "a"
      ],
      [
        "cdn",
        "-"
      ],
      [
        "news",
        "let"
      ],
      [
        "cal",
        "end"
      ],
      [
        "4",
        "2"
      ],
      [
        "d",
        "x"
      ],
      [
        "g",
        "n"
      ],
      [
        "land",
        "ing"
      ],
      [
        ".",
        "f"
      ],
      [
        "d",
        "z"
      ],
      [
        "n",
        "ext"
      ],
      [
        "st",
        "y"
      ],
      [
        "am",
        "e"
      ],
      [
        "art",
        "s"
      ],
      [
        "onlin",
        "e-"
      ],
      [
        "b",
        "on"
      ],
      [
        "co",
        "ach"
      ],
      [
        "po",
        "wer"
      ],
      [
        "5",
        "3"
      ],
      [
        "h",
        "v"
      ],
      [
        "plat",
        "form"
      ],
      [
        "c",
        "ul"
      ],
      [
        "w",
        "c"
      ],
      [
        "il",
        "la"
      ],
      [
        "il",
        "ity"
      ],
      [
        "ebo",
        "ok"
      ],
      [
        "m",
        "ir"
      ],
      [
        "q",
        "r"
      ],
      [
        "leg",
        "acy"
      ],
      [
        "ers",
        "on"
      ],
      [
        "mem",
        "bers"
      ],
      [
        "chr",
        "ist"
      ],
      [
        "7",
        "0"
      ],
      [
        "c",
        "art"
      ],
      [
        "st",
        "on"
      ],
      [
        "m.",
        "german"
      ],
      [
        "yo",
        "u"
      ],
      [
        "6",
        "2"
      ],
      [
        "h",
        "is"
      ],
      [
        "po",
        "ker"
      ],
      [
        "bai",
        "ke"
      ],
      [
        ".",
        "staging"
      ],
      [
        "ap",
        "k"
      ],
      [
        "le",
        "d"
      ],
      [
        "m.",
        "dutch"
      ],
      [
        "pr",
        "im"
      ],
      [
        "sk",
        "y"
      ],
      [
        ".",
        "lib"
      ],
      [
        "y",
        "un"
      ],
      [
        "fr",
        "ont"
      ],
      [
        "-",
        "j"
      ],
      [
        ".",
        "wp"
      ],
      [
        "b",
        "ul"
      ],
      [
        "w",
        "is"
      ],
      [
        "ke",
        "y"
      ],
      [
        "4",
        "3"
      ],
      [
        "f",
        "low"
      ],
      [
        "h",
        "p"
      ],
      [
        "x",
        "ian"
      ],
      [
        "as",
        "y"
      ],
      [
        "me",
        "et"
      ],
      [
        "if",
        "t"
      ],
      [
        "8",
        "3"
      ],
      [
        "s",
        "port"
      ],
      [
        "el",
        "s"
      ],
      [
        "coun",
        "ty"
      ],
      [
        "re",
        "port"
      ],
      [
        "op",
        "er"
      ],
      [
        "7",
        "2"
      ],
      [
        "7",
        "3"
      ],
      [
        "h",
        "all"
      ],
      [
        "book",
        "s"
      ],
      [
        "n",
        "g"
      ],
      [
        "in",
        "es"
      ],
      [
        "to",
        "wn"
      ],
      [
        "ath",
        "let"
      ],
      [
        ".",
        "my"
      ],
      [
        "8",
        "0"
      ],
      [
        "c",
        "ur"
      ],
      [
        "ap",
        "art"
      ],
      [
        "c",
        "v"
      ],
      [
        "i",
        "que"
      ],
      [
        "l",
        "ar"
      ],
      [
        "hu",
        "a"
      ],
      [
        "b",
        "f"
      ],
      [
        "e",
        "j"
      ],
      [
        "zh",
        "ong"
      ],
      [
        "ri",
        "ch"
      ],
      [
        "har",
        "ris"
      ],
      [
        "u",
        "y"
      ],
      [
        "it",
        "a"
      ],
      [
        "compan",
        "y"
      ],
      [
        "-",
        "2"
      ],
      [
        "er",
        "g"
      ],
      [
        "lo",
        "cal"
      ],
      [
        "res",
        "erv"
      ],
      [
        "tick",
        "ets"
      ],
      [
        "g",
        "p"
      ],
      [
        "r",
        "c"
      ],
      [
        "r",
        "s"
      ],
      [
        "www",
        "1"
      ],
      [
        "ab",
        "out"
      ],
      [
        "stor",
        "age"
      ],
      [
        "rad",
        "io"
      ],
      [
        "b",
        "h"
      ],
      [
        "ch",
        "en"
      ],
      [
        "lo",
        "y"
      ],
      [
        "co",
        "ok"
      ],
      [
        "77",
        "7"
      ],
      [
        "b",
        "ell"
      ],
      [
        "k",
        "at"
      ],
      [
        "n",
        "or"
      ],
      [
        "w",
        "el"
      ],
      [
        "fre",
        "e"
      ],
      [
        "m",
        "es"
      ],
      [
        "w",
        "l"
      ],
      [
        "w",
        "y"
      ],
      [
        "m.",
        "greek"
      ],
      [
        "-",
        "api"
      ],
      [
        "ko",
        "ut"
      ],
      [
        "org",
        "an"
      ],
      [
        "gam",
        "es"
      ],
      [
        "d",
        "m"
      ],
      [
        "regist",
        "er"
      ],
      [
        "d",
        "j"
      ],
      [
        "k",
        "on"
      ],
      [
        "-",
        "pro"
      ],
      [
        "a",
        "9"
      ],
      [
        "4",
        "1"
      ],
      [
        "a",
        "vi"
      ],
      [
        "s",
        "x"
      ],
      [
        ".s",
        "ites"
      ],
      [
        "cent",
        "ral"
      ],
      [
        "jo",
        "in"
      ],
      [
        "x",
        "ia"
      ],
      [
        "e",
        "co"
      ],
      [
        "af",
        "t"
      ],
      [
        "b",
        "2b"
      ],
      [
        "ch",
        "em"
      ],
      [
        "wil",
        "li"
      ],
      [
        "-",
        "co"
      ],
      [
        "i",
        "or"
      ],
      [
        "ur",
        "es"
      ],
      [
        "h",
        "h"
      ],
      [
        "en",
        "."
      ],
      [
        "ch",
        "uan"
      ],
      [
        "20",
        "18"
      ],
      [
        "mi",
        "ch"
      ],
      [
        "anc",
        "e-"
      ],
      [
        "d",
        "ing"
      ],
      [
        "f",
        "x"
      ],
      [
        "or",
        "n"
      ],
      [
        "m.",
        "italian"
      ],
      [
        "m.",
        "arabic"
      ],
      [
        "eng",
        "ine"
      ],
      [
        "produc",
        "tion"
      ],
      [
        "calend",
        "ar"
      ],
      [
        "sh",
        "u"
      ],
      [
        "accoun",
        "ts"
      ],
      [
        ".",
        "library"
      ],
      [
        "j",
        "l"
      ],
      [
        "s",
        "il"
      ],
      [
        "s",
        "23"
      ],
      [
        "et",
        "r"
      ],
      [
        "ru",
        "it"
      ],
      [
        "e",
        "ch"
      ],
      [
        "h",
        "en"
      ],
      [
        "www.",
        "www."
      ],
      [
        "ro",
        "ll"
      ],
      [
        "b",
        "ir"
      ],
      [
        "g",
        "iving"
      ],
      [
        "es",
        "k"
      ],
      [
        "ic",
        "e-"
      ],
      [
        "ec",
        "tr"
      ],
      [
        "so",
        "ur"
      ],
      [
        "lo",
        "s"
      ],
      [
        "bl",
        "u"
      ],
      [
        "i",
        "um"
      ],
      [
        "j",
        "c"
      ],
      [
        "or",
        "k"
      ],
      [
        "fa",
        "q"
      ],
      [
        ".",
        "demo"
      ],
      [
        "f",
        "un"
      ],
      [
        "ur",
        "ity"
      ],
      [
        "cor",
        "por"
      ],
      [
        "develop",
        "ers"
      ],
      [
        "j",
        "z"
      ],
      [
        "w",
        "b"
      ],
      [
        "www",
        "3"
      ],
      [
        "res",
        "ort"
      ],
      [
        "5",
        "2"
      ],
      [
        "c",
        "eb"
      ],
      [
        "o",
        "o"
      ],
      [
        "so",
        "le"
      ],
      [
        "i",
        "h"
      ],
      [
        "y",
        "p"
      ],
      [
        "b",
        "ill"
      ],
      [
        "bu",
        "ild"
      ],
      [
        "intern",
        "ational"
      ],
      [
        "8",
        "2"
      ],
      [
        "f",
        "z"
      ],
      [
        "up",
        "load"
      ],
      [
        "fo",
        "und"
      ],
      [
        "f",
        "m"
      ],
      [
        "po",
        "int"
      ],
      [
        "ve",
        "y"
      ],
      [
        "fa",
        "st"
      ],
      [
        "-",
        "dev"
      ],
      [
        "d",
        "ar"
      ],
      [
        "www.",
        "w"
      ],
      [
        "id",
        "s"
      ],
      [
        "ber",
        "g"
      ],
      [
        "wat",
        "er"
      ],
      [
        "b",
        "iz"
      ],
      [
        "career",
        "training"
      ],
      [
        "euro",
        "pe"
      ],
      [
        "d",
        "t"
      ],
      [
        "g",
        "at"
      ],
      [
        "k",
        "h"
      ],
      [
        "v",
        "c"
      ],
      [
        "-",
        "ch"
      ],
      [
        "po",
        "s"
      ],
      [
        "giris",
        "icom"
      ],
      [
        "newslet",
        "ter"
      ],
      [
        "d",
        "al"
      ],
      [
        "l",
        "ub"
      ],
      [
        "es",
        "p"
      ],
      [
        "cr",
        "m"
      ],
      [
        "n",
        "z"
      ],
      [
        "s",
        "25"
      ],
      [
        "app",
        "."
      ],
      [
        "ge",
        "o"
      ],
      [
        "b",
        "t"
      ],
      [
        "r",
        "ation"
      ],
      [
        "ele",
        "arn"
      ],
      [
        "9",
        "1"
      ],
      [
        "l",
        "c"
      ],
      [
        "lo",
        "ve"
      ],
      [
        "un",
        "ch"
      ],
      [
        "ec",
        "ts"
      ],
      [
        "ut",
        "ion"
      ],
      [
        "cp",
        "-"
      ],
      [
        "h",
        "us"
      ],
      [
        "eng",
        "lish"
      ],
      [
        "a",
        "ign"
      ],
      [
        "et",
        "-"
      ],
      [
        "ard",
        "en"
      ],
      [
        "n",
        "j"
      ],
      [
        "v",
        "ill"
      ],
      [
        "ol",
        "ar"
      ],
      [
        "l",
        "ong"
      ],
      [
        "ro",
        "b"
      ],
      [
        "le",
        "ad"
      ],
      [
        "ub",
        "e"
      ],
      [
        "pr",
        "d"
      ],
      [
        "21",
        "17"
      ],
      [
        "o",
        "wn"
      ],
      [
        "im",
        "p"
      ],
      [
        "vi",
        "r"
      ],
      [
        "dis",
        "cover"
      ],
      [
        "f",
        "ul"
      ],
      [
        "t",
        "z"
      ],
      [
        "al",
        "o"
      ],
      [
        "rec",
        "ruit"
      ],
      [
        "9",
        "3"
      ],
      [
        "i",
        "."
      ],
      [
        "x",
        "ing"
      ],
      [
        "m.",
        "russian"
      ],
      [
        "stat",
        "s"
      ],
      [
        "xi",
        "ang"
      ],
      [
        "a",
        "6"
      ],
      [
        "download",
        "s"
      ],
      [
        "d",
        "w"
      ],
      [
        "m",
        "is"
      ],
      [
        "in",
        "e-"
      ],
      [
        "or",
        "a"
      ],
      [
        "al",
        "t"
      ],
      [
        "de",
        "-"
      ],
      [
        "tr",
        "a"
      ],
      [
        "d",
        "v"
      ],
      [
        "f",
        "ind"
      ],
      [
        "v",
        "as"
      ],
      [
        "li",
        "s"
      ],
      [
        "20",
        "16"
      ],
      [
        "m.",
        "korean"
      ],
      [
        "go",
        "od"
      ],
      [
        "-p",
        "att"
      ],
      [
        "o",
        "z"
      ],
      [
        "ma",
        "ch"
      ],
      [
        "m.",
        "spanish"
      ],
      [
        "journ",
        "al"
      ],
      [
        "athlet",
        "ics"
      ],
      [
        "at",
        "l"
      ],
      [
        "po",
        "sit"
      ],
      [
        "af",
        "e"
      ],
      [
        "ard",
        "s"
      ],
      [
        "pod",
        "cast"
      ],
      [
        "9",
        "2"
      ],
      [
        "c",
        "x"
      ],
      [
        "h",
        "igh"
      ],
      [
        "j",
        "k"
      ],
      [
        "j",
        "al"
      ],
      [
        "s",
        "3"
      ],
      [
        "m.",
        "japanese"
      ],
      [
        "f",
        "-"
      ],
      [
        "g",
        "w"
      ],
      [
        "j",
        "r"
      ],
      [
        "36",
        "0"
      ],
      [
        "scr",
        "ip"
      ],
      [
        "d",
        "h"
      ],
      [
        "or",
        "ig"
      ],
      [
        "bo",
        "ut"
      ],
      [
        "m",
        "w"
      ],
      [
        "sh",
        "ar"
      ],
      [
        "api",
        "-"
      ],
      [
        "fi",
        "re"
      ],
      [
        "ne",
        "y"
      ],
      [
        "book",
        "store"
      ],
      [
        "er",
        "k"
      ],
      [
        "un",
        "e"
      ],
      [
        "ec",
        "k"
      ],
      [
        "ang",
        "el"
      ],
      [
        "wap",
        "."
      ],
      [
        "i",
        "el"
      ],
      [
        "v",
        "an"
      ],
      [
        "ap",
        "s"
      ],
      [
        "manag",
        "ement"
      ],
      [
        ".",
        "de"
      ],
      [
        "wh",
        "ite"
      ],
      [
        "ap",
        "o"
      ],
      [
        "con",
        "f"
      ],
      [
        "if",
        "y"
      ],
      [
        "ann",
        "er"
      ],
      [
        "g",
        "x"
      ],
      [
        "u",
        "ro"
      ],
      [
        "as",
        "-"
      ],
      [
        "vide",
        "os"
      ],
      [
        "spr",
        "ing"
      ],
      [
        "en",
        "a"
      ],
      [
        "ss",
        "b"
      ],
      [
        "stud",
        "ents"
      ],
      [
        "www.",
        "l"
      ],
      [
        "sh",
        "e"
      ],
      [
        "sp",
        "a"
      ],
      [
        "net",
        "work"
      ],
      [
        "f",
        "w"
      ],
      [
        "s",
        "em"
      ],
      [
        "t",
        "ing"
      ],
      [
        "bo",
        "o"
      ],
      [
        "med",
        "ic"
      ],
      [
        "f",
        "d"
      ],
      [
        "i",
        "fi"
      ],
      [
        "st",
        "aff"
      ],
      [
        "ec",
        "on"
      ],
      [
        "sup",
        "er"
      ],
      [
        "-",
        "en"
      ],
      [
        "t",
        "n"
      ],
      [
        "v",
        "el"
      ],
      [
        "lo",
        "u"
      ],
      [
        "mo",
        "t"
      ],
      [
        "t",
        "j"
      ],
      [
        "id",
        "a"
      ],
      [
        "m.",
        "portuguese"
      ],
      [
        "h",
        "z"
      ],
      [
        "ho",
        "p"
      ],
      [
        "ed",
        "s"
      ],
      [
        "and",
        "a"
      ],
      [
        "f",
        "p"
      ],
      [
        "word",
        "press"
      ],
      [
        "a",
        "us"
      ],
      [
        "q",
        "x"
      ],
      [
        "r",
        "id"
      ],
      [
        "an",
        "z"
      ],
      [
        "jack",
        "son"
      ],
      [
        "l",
        "n"
      ],
      [
        "an",
        "im"
      ],
      [
        "ur",
        "a"
      ],
      [
        "ma",
        "st"
      ],
      [
        "class",
        "ic"
      ],
      [
        "a",
        "fr"
      ],
      [
        "in",
        "te"
      ],
      [
        "it",
        "e-"
      ],
      [
        "av",
        "en"
      ],
      [
        "fl",
        "or"
      ],
      [
        "movi",
        "e"
      ],
      [
        ".",
        "co"
      ],
      [
        "7",
        "1"
      ],
      [
        "it",
        "ies"
      ],
      [
        "d",
        "re"
      ],
      [
        "q",
        "y"
      ],
      [
        "ho",
        "sp"
      ],
      [
        "proj",
        "ect"
      ],
      [
        "ho",
        "t"
      ],
      [
        "fer",
        "ence"
      ],
      [
        "o",
        "y"
      ],
      [
        "t",
        "ian"
      ],
      [
        "li",
        "f"
      ],
      [
        "self",
        "service"
      ],
      [
        "d",
        "2"
      ],
      [
        "ed",
        "-"
      ],
      [
        "tr",
        "ad"
      ],
      [
        "fl",
        "y"
      ],
      [
        "enc",
        "es"
      ],
      [
        "um",
        "b"
      ],
      [
        ".",
        "us"
      ],
      [
        "b",
        "ad"
      ],
      [
        "d",
        "p"
      ],
      [
        "p",
        "as"
      ],
      [
        "ew",
        "ay"
      ],
      [
        "-c",
        "ity"
      ],
      [
        "colle",
        "ge"
      ],
      [
        "n",
        "-"
      ],
      [
        "r",
        "v"
      ],
      [
        "s",
        "ar"
      ],
      [
        "pe",
        "op"
      ],
      [
        "market",
        "place"
      ],
      [
        "h",
        "eb"
      ],
      [
        "est",
        "er"
      ],
      [
        "chec",
        "kout"
      ],
      [
        "20",
        "15"
      ],
      [
        "red",
        "it"
      ],
      [
        "2",
        "13"
      ],
      [
        "a",
        "id"
      ],
      [
        "h",
        "ong"
      ],
      [
        "at",
        "o"
      ],
      [
        "pl",
        "ate"
      ],
      [
        "ph",
        "ys"
      ],
      [
        "hotel",
        "-"
      ],
      [
        "chec",
        "k"
      ],
      [
        "univers",
        "ity"
      ],
      [
        "h",
        "g"
      ],
      [
        "j",
        "ian"
      ],
      [
        "m",
        "ing"
      ],
      [
        "ad",
        "vis"
      ],
      [
        "pre",
        "mi"
      ],
      [
        "b",
        "x"
      ],
      [
        "b",
        "ud"
      ],
      [
        "h",
        "un"
      ],
      [
        "t",
        "il"
      ],
      [
        "et",
        "y"
      ],
      [
        "mag",
        "az"
      ],
      [
        "gall",
        "ery"
      ],
      [
        "d",
        "q"
      ],
      [
        "k",
        "z"
      ],
      [
        "sto",
        "ck"
      ],
      [
        "es",
        "."
      ],
      [
        "al",
        "ex"
      ],
      [
        "h",
        "j"
      ],
      [
        "on",
        "a"
      ],
      [
        "eb",
        "sco"
      ],
      [
        "lin",
        "ux"
      ],
      [
        "off",
        "ice"
      ],
      [
        "-patt",
        "i-"
      ],
      [
        "s",
        "1"
      ],
      [
        "s",
        "ports"
      ],
      [
        "ar",
        "-"
      ],
      [
        "he",
        "ad"
      ],
      [
        "l",
        "ang"
      ],
      [
        "p",
        "le"
      ],
      [
        "d",
        "ate"
      ],
      [
        "e",
        "a"
      ],
      [
        "h",
        "ist"
      ],
      [
        "grap",
        "hy"
      ],
      [
        ".",
        "email"
      ],
      [
        "c",
        "."
      ],
      [
        "c",
        "g"
      ],
      [
        "n",
        "b"
      ],
      [
        "ir",
        "a"
      ],
      [
        "h",
        "x"
      ],
      [
        "ko",
        "u"
      ],
      [
        "erv",
        "ices"
      ],
      [
        "ass",
        "et"
      ],
      [
        "produc",
        "t"
      ],
      [
        "beaut",
        "y"
      ],
      [
        "8",
        "1"
      ],
      [
        "k",
        "now"
      ],
      [
        "v",
        "ent"
      ],
      [
        "st",
        "ru"
      ],
      [
        "is",
        "land"
      ],
      [
        "-",
        "mo"
      ],
      [
        "e",
        "ar"
      ],
      [
        "f",
        "und"
      ],
      [
        "k",
        "el"
      ],
      [
        "00",
        "1"
      ],
      [
        "i",
        "q"
      ],
      [
        "ro",
        "ber"
      ],
      [
        "direct",
        "ory"
      ],
      [
        "c",
        "q"
      ],
      [
        "f",
        "an"
      ],
      [
        "h",
        "mn"
      ],
      [
        "u",
        "w"
      ],
      [
        "ay",
        "a"
      ],
      [
        "iv",
        "al"
      ],
      [
        "pan",
        "el"
      ],
      [
        "jam",
        "es"
      ],
      [
        "b",
        "2"
      ],
      [
        "h",
        "q"
      ],
      [
        "in",
        "et"
      ],
      [
        "as",
        "p"
      ],
      [
        "vi",
        "st"
      ],
      [
        "fr",
        "i"
      ],
      [
        "med",
        "i"
      ],
      [
        "-",
        "test"
      ],
      [
        "f",
        "ut"
      ],
      [
        "h",
        "m"
      ],
      [
        "n",
        "x"
      ],
      [
        "ag",
        "er"
      ],
      [
        "invest",
        "or"
      ],
      [
        "b",
        "at"
      ],
      [
        "m",
        "ult"
      ],
      [
        "el",
        "ectr"
      ],
      [
        "iv",
        "e-"
      ],
      [
        "eng",
        "age"
      ],
      [
        "bro",
        "wn"
      ],
      [
        "colle",
        "ct"
      ],
      [
        "j",
        "an"
      ],
      [
        "p",
        "m"
      ],
      [
        "p",
        "li"
      ],
      [
        "hom",
        "es"
      ],
      [
        "mart",
        "in"
      ],
      [
        "et",
        "er"
      ],
      [
        "end",
        "er"
      ],
      [
        "expl",
        "or"
      ],
      [
        ".",
        "l"
      ],
      [
        "k",
        "an"
      ],
      [
        "m.",
        "bengali"
      ],
      [
        "use",
        "um"
      ],
      [
        "d",
        "am"
      ],
      [
        "g",
        "or"
      ],
      [
        "t",
        "ro"
      ],
      [
        "v",
        "in"
      ],
      [
        "w",
        "ers"
      ],
      [
        "and",
        "-"
      ],
      [
        "a",
        "7"
      ],
      [
        "ic",
        "-"
      ],
      [
        "le",
        "e"
      ],
      [
        "fo",
        "lio"
      ],
      [
        "ev",
        "er"
      ],
      [
        "iz",
        "hou"
      ],
      [
        "h",
        "um"
      ],
      [
        "ar",
        "r"
      ],
      [
        "as",
        "ia"
      ],
      [
        "ko",
        "v"
      ],
      [
        "con",
        "sole"
      ],
      [
        "99",
        "9"
      ],
      [
        "xn--",
        "--"
      ],
      [
        "fir",
        "st"
      ],
      [
        "r",
        "un"
      ],
      [
        "at",
        "-"
      ],
      [
        "yo",
        "ung"
      ],
      [
        "we",
        "i"
      ],
      [
        "mic",
        "ro"
      ],
      [
        "j",
        "un"
      ],
      [
        "m",
        "ath"
      ],
      [
        "ar",
        "o"
      ],
      [
        "sh",
        "er"
      ],
      [
        "-c",
        "n"
      ],
      [
        "inst",
        "it"
      ],
      [
        "ho",
        "w"
      ],
      [
        "lab",
        "s"
      ],
      [
        "sy",
        "stem"
      ],
      [
        "amer",
        "ic"
      ],
      [
        "cons",
        "ult"
      ],
      [
        "found",
        "ation"
      ],
      [
        "b",
        "z"
      ],
      [
        "c",
        "w"
      ],
      [
        "st",
        "ad"
      ],
      [
        "ag",
        "r"
      ],
      [
        "ho",
        "les"
      ],
      [
        "gen",
        "er"
      ],
      [
        "c",
        "ert"
      ],
      [
        "n",
        "n"
      ],
      [
        "w",
        "om"
      ],
      [
        "20",
        "14"
      ],
      [
        "cdn",
        "2"
      ],
      [
        ".",
        "test"
      ],
      [
        "4",
        "d"
      ],
      [
        "a",
        "ar"
      ],
      [
        "en",
        "e"
      ],
      [
        "el",
        "i"
      ],
      [
        "ad",
        "or"
      ],
      [
        "ik",
        "a"
      ],
      [
        "ik",
        "e"
      ],
      [
        "doc",
        "um"
      ],
      [
        "esc",
        "ort"
      ],
      [
        "-",
        "us"
      ],
      [
        "b",
        "in"
      ],
      [
        "b",
        "ol"
      ],
      [
        "l",
        "ad"
      ],
      [
        "tr",
        "ade"
      ],
      [
        "sp",
        "ec"
      ],
      [
        "m",
        "v"
      ],
      [
        "p",
        "age"
      ],
      [
        "it",
        "o"
      ],
      [
        "is",
        "-"
      ],
      [
        "invest",
        "ors"
      ],
      [
        "er",
        "a"
      ],
      [
        "ro",
        "se"
      ],
      [
        "t",
        "am"
      ],
      [
        "w",
        "all"
      ],
      [
        "pro",
        "f"
      ],
      [
        "web",
        "site"
      ],
      [
        "fo",
        "ot"
      ],
      [
        "au",
        "str"
      ],
      [
        "camp",
        "aign"
      ],
      [
        "hom",
        "e-"
      ],
      [
        "c",
        "ab"
      ],
      [
        "p",
        "op"
      ],
      [
        "v",
        "ic"
      ],
      [
        "et",
        "e"
      ],
      [
        "te",
        "k"
      ],
      [
        "h",
        "on"
      ],
      [
        "li",
        "k"
      ],
      [
        "ba",
        "his"
      ],
      [
        "col",
        "or"
      ],
      [
        "j",
        "en"
      ],
      [
        "t",
        "m"
      ],
      [
        "in",
        "nov"
      ],
      [
        "er",
        "p"
      ],
      [
        "an",
        "el"
      ],
      [
        "or",
        "o"
      ],
      [
        "fre",
        "e-"
      ],
      [
        "photo",
        "s"
      ],
      [
        "a",
        "8"
      ],
      [
        "g",
        "in"
      ],
      [
        "q",
        "z"
      ],
      [
        "r",
        "ent"
      ],
      [
        "ed",
        "ia"
      ],
      [
        "aw",
        "a"
      ],
      [
        "fin",
        "anc"
      ],
      [
        "proj",
        "ects"
      ],
      [
        "elearn",
        "ing"
      ],
      [
        "peop",
        "le"
      ],
      [
        "b",
        "m"
      ],
      [
        "g",
        "ive"
      ],
      [
        "w",
        "an"
      ],
      [
        "ac",
        "e-"
      ],
      [
        "ul",
        "a"
      ],
      [
        "fo",
        "to"
      ],
      [
        "ark",
        "et"
      ],
      [
        "l",
        "uc"
      ],
      [
        "w",
        "z"
      ],
      [
        "y",
        "z"
      ],
      [
        "ha",
        "ir"
      ],
      [
        "hosp",
        "ital"
      ],
      [
        "5",
        "g"
      ],
      [
        "u",
        "-"
      ],
      [
        "v",
        "ac"
      ],
      [
        "al",
        "b"
      ],
      [
        "al",
        "es"
      ],
      [
        "ba",
        "o"
      ],
      [
        "cor",
        "d"
      ],
      [
        ".",
        "eu"
      ],
      [
        "i",
        "qu"
      ],
      [
        "o",
        "ms"
      ],
      [
        "th",
        "es"
      ],
      [
        "and",
        "box"
      ],
      [
        "ip",
        "s"
      ],
      [
        "spe",
        "ed"
      ],
      [
        "ebsco",
        "host"
      ],
      [
        ".",
        "dk"
      ],
      [
        "k",
        "j"
      ],
      [
        "s",
        "ing"
      ],
      [
        "v",
        "ers"
      ],
      [
        "pers",
        "on"
      ],
      [
        "b",
        "lo"
      ],
      [
        "b",
        "ang"
      ],
      [
        "www.",
        "shop"
      ],
      [
        "ch",
        "er"
      ],
      [
        "et",
        "te"
      ],
      [
        "chang",
        "e"
      ],
      [
        "en",
        "se"
      ],
      [
        "gu",
        "est"
      ],
      [
        "teen",
        "-patti-"
      ],
      [
        "t",
        "ay"
      ],
      [
        "ag",
        "u"
      ],
      [
        "un",
        "it"
      ],
      [
        "ho",
        "li"
      ],
      [
        "vis",
        "it"
      ],
      [
        "gir",
        "l"
      ],
      [
        "k",
        "ur"
      ],
      [
        "n",
        "ag"
      ],
      [
        "m.",
        "indonesian"
      ],
      [
        "arch",
        "ives"
      ],
      [
        "i",
        "e-"
      ],
      [
        "y",
        "l"
      ],
      [
        "ad",
        "el"
      ],
      [
        "21",
        "18"
      ],
      [
        "sal",
        "es"
      ],
      [
        "ward",
        "s"
      ],
      [
        "corpor",
        "ate"
      ],
      [
        "p",
        "in"
      ],
      [
        "-",
        "fr"
      ],
      [
        "g",
        "is"
      ],
      [
        "and",
        "ro"
      ],
      [
        "ist",
        "r"
      ],
      [
        "aw",
        "s"
      ],
      [
        "thom",
        "as"
      ],
      [
        "a",
        "0"
      ],
      [
        "j",
        "ones"
      ],
      [
        "n",
        "d"
      ],
      [
        "x",
        "-"
      ],
      [
        "hu",
        "ang"
      ],
      [
        "ind",
        "ust"
      ],
      [
        "h",
        "4"
      ],
      [
        "at",
        "e-"
      ],
      [
        "ch",
        "ina"
      ],
      [
        "ur",
        "ch"
      ],
      [
        "ir",
        "is"
      ],
      [
        "sit",
        "em"
      ],
      [
        "feed",
        "back"
      ],
      [
        "g",
        "un"
      ],
      [
        "r",
        "or"
      ],
      [
        "s",
        "et"
      ],
      [
        "-",
        "o"
      ],
      [
        ".",
        "na"
      ],
      [
        "ps",
        "y"
      ],
      [
        "ener",
        "gy"
      ],
      [
        "commer",
        "ce"
      ],
      [
        ".",
        "en"
      ],
      [
        "b",
        "p"
      ],
      [
        "g",
        "k"
      ],
      [
        "p",
        "ack"
      ],
      [
        "x",
        "u"
      ],
      [
        "20",
        "0"
      ],
      [
        "m.",
        "hindi"
      ],
      [
        "f",
        "ar"
      ],
      [
        "g",
        "-"
      ],
      [
        "g",
        "an"
      ],
      [
        "as",
        "so"
      ],
      [
        "im",
        "a"
      ],
      [
        "ins",
        "ights"
      ],
      [
        "tech",
        "no"
      ],
      [
        "b",
        "ut"
      ],
      [
        "c",
        "er"
      ],
      [
        "c",
        "la"
      ],
      [
        "al",
        "er"
      ],
      [
        "ic",
        "ation"
      ],
      [
        "ro",
        "up"
      ],
      [
        "em",
        "bed"
      ],
      [
        "ab",
        "ility"
      ],
      [
        "all",
        "en"
      ],
      [
        "zh",
        "an"
      ],
      [
        "act",
        "iv"
      ],
      [
        "roy",
        "al"
      ],
      [
        "b",
        "ac"
      ],
      [
        "c",
        "ess"
      ],
      [
        "e",
        "qu"
      ],
      [
        "i",
        "i"
      ],
      [
        "ion",
        "al"
      ],
      [
        "bab",
        "y"
      ],
      [
        "b",
        "k"
      ],
      [
        "c",
        "it"
      ],
      [
        "d",
        "ro"
      ],
      [
        "bro",
        "ok"
      ],
      [
        "emp",
        "loy"
      ],
      [
        "wid",
        "get"
      ],
      [
        "progr",
        "am"
      ],
      [
        "c",
        "lin"
      ],
      [
        "o",
        "a"
      ],
      [
        "do",
        "m"
      ],
      [
        "ind",
        "ia"
      ],
      [
        "amp",
        "le"
      ],
      [
        "fam",
        "ily"
      ],
      [
        "d",
        "3"
      ],
      [
        "v",
        "pn"
      ],
      [
        "is",
        "on"
      ],
      [
        "zh",
        "ang"
      ],
      [
        ".",
        "o"
      ],
      [
        "k",
        "-"
      ],
      [
        "r",
        "ain"
      ],
      [
        "20",
        "13"
      ],
      [
        "17",
        "6"
      ],
      [
        "17",
        "65"
      ],
      [
        "ss",
        "l"
      ],
      [
        "cont",
        "act"
      ],
      [
        "soft",
        "ware"
      ],
      [
        "atl",
        "ant"
      ],
      [
        "magaz",
        "ine"
      ],
      [
        "j",
        "q"
      ],
      [
        "s",
        "is"
      ],
      [
        "y",
        "ork"
      ],
      [
        "up",
        "date"
      ],
      [
        "ins",
        "on"
      ],
      [
        "inte",
        "gr"
      ],
      [
        "d",
        "et"
      ],
      [
        "o",
        "ver"
      ],
      [
        "p",
        "aper"
      ],
      [
        "v",
        "3"
      ],
      [
        "x",
        "z"
      ],
      [
        "in",
        "ar"
      ],
      [
        "www.",
        "z"
      ],
      [
        "sign",
        "up"
      ],
      [
        "holi",
        "day"
      ],
      [
        "k",
        "ir"
      ],
      [
        "r",
        "ac"
      ],
      [
        "u",
        "o"
      ],
      [
        "it",
        "-"
      ],
      [
        "ch",
        "ic"
      ],
      [
        "lo",
        "v"
      ],
      [
        "po",
        "t"
      ],
      [
        ".",
        "i"
      ],
      [
        "l",
        "am"
      ],
      [
        "n",
        "es"
      ],
      [
        "at",
        "alog"
      ],
      [
        "et",
        "h"
      ],
      [
        "de",
        "m"
      ],
      [
        "sec",
        "urity"
      ],
      [
        "-prod",
        ".ec"
      ],
      [
        "sur",
        "vey"
      ],
      [
        "li",
        "ps"
      ],
      [
        "ed",
        "ge"
      ],
      [
        "api",
        "."
      ],
      [
        "bl",
        "ue"
      ],
      [
        "f",
        "ang"
      ],
      [
        "g",
        "m"
      ],
      [
        "k",
        "un"
      ],
      [
        "p",
        "ac"
      ],
      [
        "t",
        "an"
      ],
      [
        "w",
        "m"
      ],
      [
        "pl",
        "ann"
      ],
      [
        "-g",
        "am"
      ],
      [
        "mem",
        "e"
      ],
      [
        "e",
        "h"
      ],
      [
        "g",
        "q"
      ],
      [
        "g",
        "v"
      ],
      [
        "l",
        "en"
      ],
      [
        "t",
        "ong"
      ],
      [
        "al",
        "li"
      ],
      [
        "el",
        "le"
      ],
      [
        "est",
        "ate"
      ],
      [
        "b",
        "le"
      ],
      [
        "c",
        "j"
      ],
      [
        "m",
        "all"
      ],
      [
        "s",
        "ant"
      ],
      [
        "ch",
        "ell"
      ],
      [
        "ur",
        "y"
      ],
      [
        "ation",
        "-"
      ],
      [
        "fin",
        "ance"
      ],
      [
        "brid",
        "ge"
      ],
      [
        "d",
        "or"
      ],
      [
        "l",
        "ux"
      ],
      [
        "x",
        "t"
      ],
      [
        "ad",
        "res"
      ],
      [
        "and",
        "er"
      ],
      [
        "po",
        "ol"
      ],
      [
        "ko",
        "le"
      ],
      [
        "bu",
        "il"
      ],
      [
        "-",
        "to"
      ],
      [
        "it",
        "z"
      ],
      [
        "ap",
        "e"
      ],
      [
        "ec",
        "a"
      ],
      [
        "erv",
        "er"
      ],
      [
        "leg",
        "al"
      ],
      [
        "produc",
        "ts"
      ],
      [
        "pass",
        "word"
      ],
      [
        "h",
        "ang"
      ],
      [
        "s",
        "av"
      ],
      [
        "w",
        "en"
      ],
      [
        "in",
        "i"
      ],
      [
        "www.",
        "de"
      ],
      [
        "is",
        "m"
      ],
      [
        "und",
        "er"
      ],
      [
        "holes",
        "ale"
      ],
      [
        "h",
        "il"
      ],
      [
        "n",
        "ik"
      ],
      [
        "al",
        "ph"
      ],
      [
        "co",
        "ol"
      ],
      [
        "im",
        "e"
      ],
      [
        "cdn",
        "1"
      ],
      [
        "map",
        "s"
      ],
      [
        "lo",
        "c"
      ],
      [
        "ac",
        "on"
      ],
      [
        "ma",
        "k"
      ],
      [
        "cor",
        "p"
      ],
      [
        "che",
        "ap"
      ],
      [
        "sty",
        "le"
      ],
      [
        "willi",
        "ams"
      ],
      [
        "j",
        "n"
      ],
      [
        "y",
        "m"
      ],
      [
        "gr",
        "an"
      ],
      [
        "os",
        "s"
      ],
      [
        "track",
        "ing"
      ],
      [
        "expl",
        "ore"
      ],
      [
        "custom",
        "er"
      ],
      [
        "b",
        "ag"
      ],
      [
        "o",
        "ak"
      ],
      [
        "p",
        "ad"
      ],
      [
        "sh",
        "a"
      ],
      [
        "sh",
        "en"
      ],
      [
        "up",
        "port"
      ],
      [
        "bet",
        "-"
      ],
      [
        "gro",
        "w"
      ],
      [
        "priv",
        "acy"
      ],
      [
        "a",
        "is"
      ],
      [
        "b",
        "5"
      ],
      [
        "y",
        "ing"
      ],
      [
        "ed",
        "er"
      ],
      [
        "id",
        "er"
      ],
      [
        "be",
        "ij"
      ],
      [
        "med",
        "ical"
      ],
      [
        "ain",
        "t"
      ],
      [
        "ph",
        "arm"
      ],
      [
        "ell",
        "er"
      ],
      [
        "ath",
        "er"
      ],
      [
        "08",
        "0"
      ],
      [
        "lock",
        "smith"
      ],
      [
        "hous",
        "e-"
      ],
      [
        "h",
        "ab"
      ],
      [
        "20",
        "12"
      ],
      [
        "static",
        "-"
      ],
      [
        "b",
        "w"
      ],
      [
        "f",
        "g"
      ],
      [
        "n",
        "m"
      ],
      [
        "s",
        "we"
      ],
      [
        "an",
        "ia"
      ],
      [
        "ch",
        "in"
      ],
      [
        "li",
        "ent"
      ],
      [
        "la",
        "sh"
      ],
      [
        "cas",
        "in"
      ],
      [
        "cour",
        "se"
      ],
      [
        "b",
        "v"
      ],
      [
        "f",
        "act"
      ],
      [
        "n",
        "ic"
      ],
      [
        "p",
        "v"
      ],
      [
        "t",
        "ar"
      ],
      [
        "at",
        "ch"
      ],
      [
        "li",
        "a"
      ],
      [
        "com",
        "."
      ],
      [
        "orig",
        "in"
      ],
      [
        "tay",
        "lor"
      ],
      [
        "f",
        "h"
      ],
      [
        "i",
        "am"
      ],
      [
        "n",
        "h"
      ],
      [
        "p",
        "d"
      ],
      [
        "co",
        "oper"
      ],
      [
        "ca",
        "sh"
      ],
      [
        "liv",
        "e-"
      ],
      [
        "b",
        "8"
      ],
      [
        "c",
        "up"
      ],
      [
        "m",
        "z"
      ],
      [
        "al",
        "d"
      ],
      [
        "grap",
        "h"
      ],
      [
        "p",
        "ul"
      ],
      [
        "sp",
        "ot"
      ],
      [
        "-c",
        "ent"
      ],
      [
        "qu",
        "an"
      ],
      [
        "mor",
        "ris"
      ],
      [
        "aur",
        "ant"
      ],
      [
        ".",
        "preview"
      ],
      [
        "c",
        "ut"
      ],
      [
        "g",
        "ang"
      ],
      [
        "p",
        "it"
      ],
      [
        "al",
        "a"
      ],
      [
        "at",
        "r"
      ],
      [
        "qu",
        "iz"
      ],
      [
        "cli",
        "ents"
      ],
      [
        ".",
        "j"
      ],
      [
        "k",
        "w"
      ],
      [
        "at",
        "i"
      ],
      [
        "li",
        "p"
      ],
      [
        "mo",
        "unt"
      ],
      [
        "r",
        "ing"
      ],
      [
        "t",
        "is"
      ],
      [
        "et",
        "o"
      ],
      [
        "ol",
        "utions"
      ],
      [
        "tr",
        "i"
      ],
      [
        "and",
        "ong"
      ],
      [
        "ak",
        "u"
      ],
      [
        "17",
        "0"
      ],
      [
        "man",
        "age"
      ],
      [
        "fl",
        "u"
      ],
      [
        "john",
        "son"
      ],
      [
        "l",
        "ms"
      ],
      [
        "r",
        "r"
      ],
      [
        "mo",
        "ore"
      ],
      [
        "tr",
        "an"
      ],
      [
        "enc",
        "e-"
      ],
      [
        "stre",
        "et"
      ],
      [
        "w",
        "d"
      ],
      [
        "y",
        "on"
      ],
      [
        "affili",
        "ates"
      ],
      [
        "t",
        "ec"
      ],
      [
        "w",
        "ash"
      ],
      [
        "en",
        "ix"
      ],
      [
        "erv",
        "ice"
      ],
      [
        "17",
        "8"
      ],
      [
        "ve",
        "gas"
      ],
      [
        "13",
        "8"
      ],
      [
        "ps",
        "on"
      ],
      [
        "ond",
        "on"
      ],
      [
        "3",
        "."
      ],
      [
        "f",
        "v"
      ],
      [
        "g",
        "j"
      ],
      [
        "n",
        "ord"
      ],
      [
        "t",
        "ag"
      ],
      [
        "u",
        "v"
      ],
      [
        "pre",
        "prod"
      ],
      [
        "y",
        "in"
      ],
      [
        "re",
        "mo"
      ],
      [
        "re",
        "fer"
      ],
      [
        "ro",
        "m"
      ],
      [
        "il",
        "i"
      ],
      [
        "ed",
        "it"
      ],
      [
        "cdn",
        "."
      ],
      [
        "-s",
        "lot"
      ],
      [
        "da",
        "vi"
      ],
      [
        "develop",
        "ment"
      ],
      [
        "agen",
        "cy"
      ],
      [
        "f",
        "arm"
      ],
      [
        "k",
        "c"
      ],
      [
        "z",
        "en"
      ],
      [
        "ch",
        "ong"
      ],
      [
        "la",
        "ke"
      ],
      [
        "fa",
        "sh"
      ],
      [
        "hotel",
        "s"
      ],
      [
        "andro",
        "id"
      ],
      [
        "e",
        "2"
      ],
      [
        "ed",
        "itor"
      ],
      [
        "tr",
        "act"
      ],
      [
        ".s",
        "ite"
      ],
      [
        "host",
        "ing"
      ],
      [
        "m",
        "ind"
      ],
      [
        "u",
        "it"
      ],
      [
        "ap",
        "ac"
      ],
      [
        "sp",
        "ir"
      ],
      [
        "zh",
        "i"
      ],
      [
        "sco",
        "tt"
      ],
      [
        "sand",
        "box"
      ],
      [
        "bout",
        "ique"
      ],
      [
        "-",
        "3"
      ],
      [
        "k",
        "az"
      ],
      [
        "r",
        "ap"
      ],
      [
        "w",
        "ind"
      ],
      [
        "lo",
        "ok"
      ],
      [
        "ur",
        "l"
      ],
      [
        "zh",
        "en"
      ],
      [
        "ann",
        "el"
      ],
      [
        "c",
        "ad"
      ],
      [
        "d",
        "in"
      ],
      [
        "e",
        "3"
      ],
      [
        "f",
        "fe"
      ],
      [
        "k",
        "ai"
      ],
      [
        "z",
        "1"
      ],
      [
        "port",
        "folio"
      ],
      [
        "stor",
        "y"
      ],
      [
        "wat",
        "ch"
      ],
      [
        "nat",
        "ur"
      ],
      [
        "a",
        "qu"
      ],
      [
        "c",
        "4"
      ],
      [
        "k",
        "t"
      ],
      [
        "k",
        "v"
      ],
      [
        "q",
        "h"
      ],
      [
        "w",
        "v"
      ],
      [
        "er",
        "ies"
      ],
      [
        "an",
        "e"
      ],
      [
        "or",
        "es"
      ],
      [
        "pl",
        "y"
      ],
      [
        "pro",
        "per"
      ],
      [
        "ill",
        "s"
      ],
      [
        "ect",
        "ion"
      ],
      [
        ".",
        "portal"
      ],
      [
        "b",
        "-"
      ],
      [
        "b",
        "1"
      ],
      [
        "n",
        "ex"
      ],
      [
        "em",
        "s"
      ],
      [
        "and",
        "erson"
      ],
      [
        "web",
        "-"
      ],
      [
        "-re",
        "pair"
      ],
      [
        "beij",
        "ing"
      ],
      [
        "f",
        "lo"
      ],
      [
        "k",
        "in"
      ],
      [
        "m",
        "ay"
      ],
      [
        "y",
        "c"
      ],
      [
        "st",
        "u"
      ],
      [
        "el",
        "ev"
      ],
      [
        "ol",
        "en"
      ],
      [
        "bo",
        "dy"
      ],
      [
        "sci",
        "ence"
      ],
      [
        "j",
        "d"
      ],
      [
        "ar",
        "io"
      ],
      [
        "id",
        "ad"
      ],
      [
        "ans",
        "wers"
      ],
      [
        "mit",
        "chell"
      ],
      [
        "cre",
        "at"
      ],
      [
        "enter",
        "pr"
      ],
      [
        "sol",
        "utions"
      ],
      [
        "fash",
        "ion"
      ],
      [
        "-",
        "ma"
      ],
      [
        "g",
        "e-"
      ],
      [
        "m",
        "organ"
      ],
      [
        "r",
        "d"
      ],
      [
        "z",
        "w"
      ],
      [
        "ho",
        "to"
      ],
      [
        "so",
        "m"
      ],
      [
        "con",
        "ference"
      ],
      [
        "hel",
        "lo"
      ],
      [
        "-p",
        "a"
      ],
      [
        "coun",
        "t"
      ],
      [
        "gro",
        "und"
      ],
      [
        "val",
        "ley"
      ],
      [
        "can",
        "vas"
      ],
      [
        "exper",
        "i"
      ],
      [
        "c",
        "2"
      ],
      [
        "k",
        "am"
      ],
      [
        "r",
        "ay"
      ],
      [
        "id",
        "o"
      ],
      [
        "hu",
        "i"
      ],
      [
        "iz",
        "z"
      ],
      [
        "ial",
        "s"
      ],
      [
        "ha",
        "us"
      ],
      [
        "n",
        "w"
      ],
      [
        "www.",
        "o"
      ],
      [
        "ent",
        "o"
      ],
      [
        "ak",
        "a"
      ],
      [
        "17",
        "7"
      ],
      [
        "vis",
        "ion"
      ],
      [
        "tal",
        "k"
      ],
      [
        ".",
        "api"
      ],
      [
        "b",
        "and"
      ],
      [
        "d",
        "ag"
      ],
      [
        "f",
        "le"
      ],
      [
        "n",
        "p"
      ],
      [
        "v",
        "1"
      ],
      [
        "is",
        "ion"
      ],
      [
        "ut",
        "or"
      ],
      [
        "ant",
        "on"
      ],
      [
        "sit",
        "e-"
      ],
      [
        "-",
        "5"
      ],
      [
        ".",
        "x"
      ],
      [
        "a",
        "el"
      ],
      [
        "c",
        "1"
      ],
      [
        "it",
        "i"
      ],
      [
        "le",
        "wis"
      ],
      [
        "vi",
        "a"
      ],
      [
        "for",
        "ce"
      ],
      [
        "ai",
        "re"
      ],
      [
        "acade",
        "mic"
      ],
      [
        "regist",
        "ration"
      ],
      [
        ".",
        "u"
      ],
      [
        "or",
        "ient"
      ],
      [
        "ch",
        "u"
      ],
      [
        "co",
        "s"
      ],
      [
        "ad",
        "ams"
      ],
      [
        "br",
        "a"
      ],
      [
        "mon",
        "ey"
      ],
      [
        "e",
        "asy"
      ],
      [
        "t",
        "emp"
      ],
      [
        "v",
        "s"
      ],
      [
        "z",
        "s"
      ],
      [
        "at",
        "ing"
      ],
      [
        "ol",
        "y"
      ],
      [
        "em",
        "er"
      ],
      [
        "ex",
        "po"
      ],
      [
        "c",
        "e-"
      ],
      [
        "d",
        "1"
      ],
      [
        "f",
        "on"
      ],
      [
        "h",
        "ard"
      ],
      [
        "w",
        "ed"
      ],
      [
        "es",
        "ign"
      ],
      [
        "th",
        "eb"
      ],
      [
        "bo",
        "y"
      ],
      [
        "stud",
        "y"
      ],
      [
        "d",
        "ent"
      ],
      [
        "f",
        "0"
      ],
      [
        "f",
        "4"
      ],
      [
        "g",
        "el"
      ],
      [
        "da",
        "o"
      ],
      [
        "uk",
        "u"
      ],
      [
        "login",
        "."
      ],
      [
        "giris",
        "com"
      ],
      [
        "rob",
        "inson"
      ],
      [
        "c",
        "5"
      ],
      [
        "h",
        "ack"
      ],
      [
        "l",
        "x"
      ],
      [
        "p",
        "x"
      ],
      [
        "s",
        "at"
      ],
      [
        "al",
        "ia"
      ],
      [
        "ro",
        "of"
      ],
      [
        "sh",
        "ui"
      ],
      [
        "as",
        "i"
      ],
      [
        "ex",
        "press"
      ],
      [
        "shang",
        "hai"
      ],
      [
        "adres",
        "icom"
      ],
      [
        "-",
        "0"
      ],
      [
        "d",
        "ir"
      ],
      [
        "f",
        "2"
      ],
      [
        "g",
        "ur"
      ],
      [
        "an",
        "y"
      ],
      [
        "or",
        "i"
      ],
      [
        "im",
        "ag"
      ],
      [
        "id",
        "p"
      ],
      [
        "be",
        "y"
      ],
      [
        "da",
        "ily"
      ],
      [
        "24",
        "7"
      ],
      [
        "-serv",
        "ices"
      ],
      [
        "phil",
        "lips"
      ],
      [
        "c",
        "and"
      ],
      [
        "n",
        "t"
      ],
      [
        "www.",
        "my"
      ],
      [
        "re",
        "posit"
      ],
      [
        "and",
        "re"
      ],
      [
        "ew",
        "s"
      ],
      [
        "m.",
        "turkish"
      ],
      [
        "m.",
        "vietnamese"
      ],
      [
        "dr",
        "ive"
      ],
      [
        "sch",
        "olar"
      ],
      [
        "a",
        "q"
      ],
[...]
